{
  "version": "1.0",
  "truncation": null,
  "padding": null,
  "added_tokens": [
    {
      "id": 0,
      "content": "<PAD>",
      "single_word": false,
      "lstrip": false,
      "rstrip": false,
      "normalized": false,
      "special": true
    },
    {
      "id": 1,
      "content": "<UNK>",
      "single_word": false,
      "lstrip": false,
      "rstrip": false,
      "normalized": false,
      "special": true
    },
    {
      "id": 2,
      "content": "<BOS>",
      "single_word": false,
      "lstrip": false,
      "rstrip": false,
      "normalized": false,
      "special": true
    },
    {
      "id": 3,
      "content": "<EOS>",
      "single_word": false,
      "lstrip": false,
      "rstrip": false,
      "normalized": false,
      "special": true
    }
  ],
  "normalizer": {
    "type": "Sequence",
    "normalizers": [
      {
        "type": "NFKC"
      }
    ]
  },
  "pre_tokenizer": {
    "type": "ByteLevel",
    "add_prefix_space": true,
    "trim_offsets": true,
    "use_regex": true
  },
  "post_processor": null,
  "decoder": {
    "type": "ByteLevel",
    "add_prefix_space": true,
    "trim_offsets": true,
    "use_regex": true
  },
  "model": {
    "type": "BPE",
    "dropout": null,
    "unk_token": "<UNK>",
    "continuing_subword_prefix": null,
    "end_of_word_suffix": null,
    "fuse_unk": false,
    "byte_fallback": false,
    "ignore_merges": false,
    "vocab": {
      "<PAD>": 0,
      "<UNK>": 1,
      "<BOS>": 2,
      "<EOS>": 3,
      "!": 4,
      "\"": 5,
      "#": 6,
      "$": 7,
      "%": 8,
      "&": 9,
      "'": 10,
      "(": 11,
      ")": 12,
      "*": 13,
      "+": 14,
      ",": 15,
      "-": 16,
      ".": 17,
      "/": 18,
      "0": 19,
      "1": 20,
      "2": 21,
      "3": 22,
      "4": 23,
      "5": 24,
      "6": 25,
      "7": 26,
      "8": 27,
      "9": 28,
      ":": 29,
      ";": 30,
      "<": 31,
      "=": 32,
      ">": 33,
      "?": 34,
      "@": 35,
      "C": 36,
      "M": 37,
      "N": 38,
      "R": 39,
      "T": 40,
      "V": 41,
      "Z": 42,
      "[": 43,
      "\\": 44,
      "]": 45,
      "^": 46,
      "_": 47,
      "`": 48,
      "a": 49,
      "b": 50,
      "c": 51,
      "d": 52,
      "e": 53,
      "f": 54,
      "g": 55,
      "h": 56,
      "i": 57,
      "j": 58,
      "k": 59,
      "l": 60,
      "m": 61,
      "n": 62,
      "o": 63,
      "p": 64,
      "q": 65,
      "r": 66,
      "s": 67,
      "t": 68,
      "u": 69,
      "v": 70,
      "w": 71,
      "x": 72,
      "y": 73,
      "z": 74,
      "{": 75,
      "|": 76,
      "}": 77,
      "~": 78,
      "¡": 79,
      "¢": 80,
      "£": 81,
      "¤": 82,
      "¥": 83,
      "¦": 84,
      "§": 85,
      "¨": 86,
      "©": 87,
      "ª": 88,
      "«": 89,
      "¬": 90,
      "®": 91,
      "¯": 92,
      "°": 93,
      "±": 94,
      "²": 95,
      "³": 96,
      "´": 97,
      "µ": 98,
      "¶": 99,
      "·": 100,
      "¸": 101,
      "¹": 102,
      "º": 103,
      "»": 104,
      "¼": 105,
      "½": 106,
      "¾": 107,
      "¿": 108,
      "Â": 109,
      "Ã": 110,
      "Ä": 111,
      "Å": 112,
      "È": 113,
      "Ê": 114,
      "Ë": 115,
      "Ì": 116,
      "Î": 117,
      "Ï": 118,
      "Ð": 119,
      "Ñ": 120,
      "á": 121,
      "â": 122,
      "ã": 123,
      "ä": 124,
      "å": 125,
      "æ": 126,
      "ç": 127,
      "è": 128,
      "é": 129,
      "ê": 130,
      "ë": 131,
      "ì": 132,
      "ï": 133,
      "Ġ": 134,
      "Ģ": 135,
      "ģ": 136,
      "Ĥ": 137,
      "ĥ": 138,
      "Ħ": 139,
      "ħ": 140,
      "Ĩ": 141,
      "ĩ": 142,
      "Ī": 143,
      "ī": 144,
      "Ĭ": 145,
      "ĭ": 146,
      "Į": 147,
      "į": 148,
      "İ": 149,
      "ı": 150,
      "Ĳ": 151,
      "ĳ": 152,
      "Ĵ": 153,
      "ĵ": 154,
      "Ķ": 155,
      "ķ": 156,
      "ĸ": 157,
      "Ĺ": 158,
      "ĺ": 159,
      "Ļ": 160,
      "ļ": 161,
      "Ľ": 162,
      "ľ": 163,
      "Ŀ": 164,
      "ŀ": 165,
      "Ł": 166,
      "ł": 167,
      "Ń": 168,
      "Ġt": 169,
      "Ġth": 170,
      "Ġa": 171,
      "in": 172,
      "\\\\": 173,
      "Ġs": 174,
      "Ġthe": 175,
      "er": 176,
      "Ġ\\\\": 177,
      "on": 178,
      "Ġc": 179,
      "re": 180,
      "Ġi": 181,
      "at": 182,
      ".\\": 183,
      "le": 184,
      "Ġp": 185,
      "Ġb": 186,
      "Ġf": 187,
      "Ġo": 188,
      "en": 189,
      "Ġan": 190,
      "Ġ=": 191,
      "Ġm": 192,
      "Ġn": 193,
      "es": 194,
      "ĠĠ": 195,
      "or": 196,
      "al": 197,
      "Ġto": 198,
      "ion": 199,
      "an": 200,
      "Ġw": 201,
      "ing": 202,
      "it": 203,
      "Ġin": 204,
      "Ġd": 205,
      "ut": 206,
      "ed": 207,
      "ro": 208,
      "ac": 209,
      "Ġ\\\\(": 210,
      "Ġe": 211,
      "Ġand": 212,
      "Ġof": 213,
      "Ġ1": 214,
      "Ġis": 215,
      "is": 216,
      "Ġ+": 217,
      "Ġ-": 218,
      "th": 219,
      "ar": 220,
      "ou": 221,
      "ic": 222,
      "um": 223,
      "Ġre": 224,
      "ct": 225,
      "Ġ\\\\)": 226,
      "ve": 227,
      "Ġthat": 228,
      "Ġ2": 229,
      "ly": 230,
      "Ġh": 231,
      "st": 232,
      "se": 233,
      "id": 234,
      "Ġ(": 235,
      "ent": 236,
      "Ġfor": 237,
      "qu": 238,
      "ol": 239,
      "Ġcon": 240,
      "gh": 241,
      "Ġbe": 242,
      "im": 243,
      ":\\": 244,
      "Ġl": 245,
      "Ġse": 246,
      "\\'": 247,
      "ter": 248,
      "Ġg": 249,
      "om": 250,
      "Ġne": 251,
      "\\\\)": 252,
      "Ġwh": 253,
      "Ġst": 254,
      "ot": 255,
      "rac": 256,
      "Ġpo": 257,
      "ions": 258,
      "Ġcan": 259,
      "ir": 260,
      "ght": 261,
      "ss": 262,
      "ay": 263,
      "ĠĠĠĠ": 264,
      "Ġare": 265,
      "ow": 266,
      "ns": 267,
      "Ġon": 268,
      "ce": 269,
      "Ġu": 270,
      "Ġpro": 271,
      "ap": 272,
      "ri": 273,
      "Ġ3": 274,
      "Ġx": 275,
      "ith": 276,
      "ach": 277,
      "}{": 278,
      "ll": 279,
      "frac": 280,
      "Ġex": 281,
      "Ġv": 282,
      "ble": 283,
      "Ġ0": 284,
      "Ġit": 285,
      "Ġdi": 286,
      "Ġle": 287,
      "as": 288,
      "Ġneed": 289,
      "Ġwith": 290,
      "Ġthis": 291,
      "nth": 292,
      "ive": 293,
      "rom": 294,
      "ul": 295,
      "Ġy": 296,
      "00": 297,
      "Ġper": 298,
      "ber": 299,
      "ld": 300,
      "em": 301,
      "Ġk": 302,
      "Ġnum": 303,
      "am": 304,
      "Ġsu": 305,
      "Ġde": 306,
      "int": 307,
      "sid": 308,
      "Ġnumber": 309,
      "Ġr": 310,
      "be": 311,
      "Ġ4": 312,
      "ation": 313,
      "ang": 314,
      "Ġfin": 315,
      "olut": 316,
      "Ġme": 317,
      "ad": 318,
      "sider": 319,
      "Ġif": 320,
      "ist": 321,
      "ere": 322,
      "Ġat": 323,
      "Ġas": 324,
      "ould": 325,
      "nw": 326,
      "ch": 327,
      "Ġeach": 328,
      "ain": 329,
      "Ġfrom": 330,
      "ich": 331,
      "aps": 332,
      "Ġsh": 333,
      "nb": 334,
      "ate": 335,
      "nso": 336,
      "Ġconsider": 337,
      "ple": 338,
      "nt": 339,
      "put": 340,
      "**": 341,
      "te": 342,
      "if": 343,
      "haps": 344,
      "ĠĠĠ": 345,
      "Ġwhich": 346,
      "Ġso": 347,
      "pl": 348,
      "il": 349,
      "olution": 350,
      "ait": 351,
      "ur": 352,
      "nle": 353,
      "Ġsum": 354,
      "Ġch": 355,
      "ver": 356,
      "Ġor": 357,
      "nbut": 358,
      "Ġbut": 359,
      "]\\": 360,
      "de": 361,
      "Ġcom": 362,
      "ore": 363,
      "nlet": 364,
      "ction": 365,
      "Ġperhaps": 366,
      "nwait": 367,
      "ff": 368,
      "Ġnot": 369,
      "end": 370,
      "iv": 371,
      "Ġ<": 372,
      "--": 373,
      "Ġfind": 374,
      "Ġall": 375,
      "Ġ5": 376,
      "Ġby": 377,
      "Ġ\\\\),": 378,
      "et": 379,
      "Ġma": 380,
      "ep": 381,
      "ative": 382,
      "est": 383,
      "Ġequ": 384,
      "nal": 385,
      "ces": 386,
      "ought": 387,
      ")\\": 388,
      "Ġwe": 389,
      "of": 390,
      "Ġthere": 391,
      "pp": 392,
      "ations": 393,
      "sit": 394,
      "Ġab": 395,
      "us": 396,
      "Ġ'": 397,
      "^{": 398,
      "|>": 399,
      "iz": 400,
      "tern": 401,
      "ment": 402,
      "Ġco": 403,
      "'s": 404,
      "Ġtr": 405,
      "qr": 406,
      "ec": 407,
      "Ġshould": 408,
      "Ġpre": 409,
      "Ġform": 410,
      "Ġpoint": 411,
      "qrt": 412,
      "Ġro": 413,
      "nf": 414,
      "Ġstep": 415,
      "ssi": 416,
      "Ġ\"": 417,
      "ther": 418,
      "nn": 419,
      "Ġtw": 420,
      "Ġ6": 421,
      "pt": 422,
      "ave": 423,
      "ke": 424,
      "lo": 425,
      "aybe": 426,
      "ine": 427,
      "ue": 428,
      "ternative": 429,
      "Ġ$": 430,
      "Ġac": 431,
      "\\\\[": 432,
      "ink": 433,
      "ng": 434,
      "Ġâ": 435,
      "),": 436,
      "ase": 437,
      "nalternative": 438,
      "pre": 439,
      "_{": 440,
      "Ġone": 441,
      "ni": 442,
      "nalternatively": 443,
      "Ġtwo": 444,
      "ies": 445,
      "Ġsolution": 446,
      "ant": 447,
      "Ġthink": 448,
      "nd": 449,
      "irst": 450,
      "\\\\),": 451,
      "Ġqu": 452,
      "Ġhave": 453,
      "angle": 454,
      "right": 455,
      "Ġmo": 456,
      "cle": 457,
      "Ġthen": 458,
      "ge": 459,
      "Ġposit": 460,
      "ince": 461,
      "':": 462,
      "ect": 463,
      "gin": 464,
      "rou": 465,
      "ger": 466,
      "art": 467,
      "cess": 468,
      "Ġsp": 469,
      "per": 470,
      "con": 471,
      "Ġwhere": 472,
      "Ġal": 473,
      "sqrt": 474,
      "and": 475,
      "ome": 476,
      "oo": 477,
      "are": 478,
      "our": 479,
      "blem": 480,
      "Ġmin": 481,
      "ight": 482,
      "rect": 483,
      "out": 484,
      "Ġ*": 485,
      "Ġproblem": 486,
      "Ġ10": 487,
      "Ġmaybe": 488,
      "Ġno": 489,
      "Ġapp": 490,
      "iven": 491,
      "Ġtri": 492,
      "xt": 493,
      "fore": 494,
      "ample": 495,
      "Ġdiff": 496,
      "ft": 497,
      "ime": 498,
      "Ġ9": 499,
      "imes": 500,
      "Ġpl": 501,
      "act": 502,
      "thought": 503,
      "ence": 504,
      "ĠĠĠĠĠĠĠ": 505,
      "Ġany": 506,
      "Ġ{": 507,
      "ssible": 508,
      "Ġ[": 509,
      "Ġinte": 510,
      "Ġdiffer": 511,
      "cd": 512,
      "cl": 513,
      "ems": 514,
      "ally": 515,
      "Ġval": 516,
      "10": 517,
      "Ġbet": 518,
      "ity": 519,
      "Ġ**": 520,
      "Ġsuch": 521,
      "Ġlet": 522,
      "Ġacc": 523,
      "nthis": 524,
      "Ġ\\\\).\\": 525,
      "Ġsince": 526,
      "ated": 527,
      "ord": 528,
      "Ġhe": 529,
      "Ġcor": 530,
      "Ġinteger": 531,
      "Ġz": 532,
      "Ġsome": 533,
      "Ġway": 534,
      "Ġad": 535,
      "ure": 536,
      "nnow": 537,
      "Ġ7": 538,
      "ors": 539,
      "Ġpr": 540,
      "Ġdist": 541,
      "fin": 542,
      "Ġstr": 543,
      "ide": 544,
      "Ġver": 545,
      "os": 546,
      "Ġ8": 547,
      "Ġang": 548,
      "Ġ>": 549,
      "ult": 550,
      "Ġpa": 551,
      "Ġus": 552,
      "Ġtry": 553,
      "Ġbo": 554,
      "begin": 555,
      "Ġdiv": 556,
      "Ġseems": 557,
      "Ġangle": 558,
      "low": 559,
      "ust": 560,
      "Ġmax": 561,
      "erm": 562,
      "Ġtriangle": 563,
      "Ġint": 564,
      "Ġsub": 565,
      "ame": 566,
      "Ġappro": 567,
      "Ġhas": 568,
      "Ġpossible": 569,
      "tal": 570,
      "\\\\]\\": 571,
      "ta": 572,
      "Ġterm": 573,
      "Ġsy": 574,
      "ise": 575,
      ")^": 576,
      "Ġout": 577,
      "ag": 578,
      "Ġen": 579,
      "Ġ<|": 580,
      "Ġequal": 581,
      "Ġfirst": 582,
      "ree": 583,
      "Ġcir": 584,
      "all": 585,
      "Ġup": 586,
      "Ġj": 587,
      "Ġset": 588,
      "nin": 589,
      "un": 590,
      "Ġpoints": 591,
      "rough": 592,
      "Ġrem": 593,
      "Ġthrough": 594,
      "val": 595,
      "Ġcol": 596,
      "ack": 597,
      "Ġinter": 598,
      "Ġprocess": 599,
      "solution": 600,
      "Ġsim": 601,
      "Ġar": 602,
      "Ġthese": 603,
      "Ġsteps": 604,
      "Ġtotal": 605,
      "Ġdo": 606,
      "ial": 607,
      "Ġexpl": 608,
      "stem": 609,
      "press": 610,
      "Ġ\\'": 611,
      "ab": 612,
      "text": 613,
      "Ġapproach": 614,
      "pon": 615,
      "<|": 616,
      "we": 617,
      "ngth": 618,
      "ount": 619,
      "ath": 620,
      "uct": 621,
      ").\\": 622,
      "Ġthan": 623,
      "Ġexpress": 624,
      "Ġ/": 625,
      "Ġother": 626,
      "Ġquest": 627,
      "nthen": 628,
      "ween": 629,
      "Ġthought": 630,
      "ous": 631,
      "ast": 632,
      "Ġim": 633,
      "Ġbetween": 634,
      "Ġcase": 635,
      "cul": 636,
      "Ġres": 637,
      "ize": 638,
      "ilar": 639,
      "Ġ\\": 640,
      "Ġspec": 641,
      "Ġinto": 642,
      "Ġdifferent": 643,
      "urre": 644,
      "imum": 645,
      "Ġ\\\\(\\\\": 646,
      "Ġterms": 647,
      "Ġ\\\\]\\": 648,
      "ort": 649,
      "cdot": 650,
      "eck": 651,
      "times": 652,
      "git": 653,
      "Ġfol": 654,
      "ill": 655,
      "Ġfun": 656,
      "wer": 657,
      "cise": 658,
      "quare": 659,
      "Ġcorrect": 660,
      "11": 661,
      "Ġformat": 662,
      "Ġinput": 663,
      "\\\\[\\": 664,
      "Ġlength": 665,
      "Ġboth": 666,
      "Ġline": 667,
      "\\\\).\\": 668,
      "Ġuse": 669,
      "Ġrel": 670,
      "Ġonly": 671,
      "Ġwould": 672,
      "Ġsection": 673,
      "left": 674,
      "Ġsm": 675,
      "Ġsquare": 676,
      "nthere": 677,
      "Ġdeta": 678,
      "ire": 679,
      "alcul": 680,
      "Ġ\\\\)\\": 681,
      "Ġabout": 682,
      "Ġnumbers": 683,
      "ard": 684,
      "ra": 685,
      "ip": 686,
      "Ġexplor": 687,
      "ong": 688,
      "Ġmat": 689,
      "ctions": 690,
      "Ġfollow": 691,
      "Ġ|": 692,
      "Ġusing": 693,
      "Ġ12": 694,
      "ines": 695,
      "urrent": 696,
      "ides": 697,
      "Ġsol": 698,
      "ntherefore": 699,
      "ary": 700,
      "atic": 701,
      "ents": 702,
      "able": 703,
      "dit": 704,
      "nfor": 705,
      "ance": 706,
      "gn": 707,
      "po": 708,
      "Ġspecif": 709,
      "Ġgiven": 710,
      "Ġâī": 711,
      "ffic": 712,
      "Ġarea": 713,
      "ne": 714,
      "Ġpair": 715,
      "Ġcircle": 716,
      "nm": 717,
      "orm": 718,
      ")/": 719,
      "ious": 720,
      "Ġtheir": 721,
      "Ġgr": 722,
      "Ġli": 723,
      "Ġcont": 724,
      "Ġref": 725,
      "Ġq": 726,
      "ffici": 727,
      "ates": 728,
      "ass": 729,
      "ical": 730,
      "Ġbec": 731,
      "ify": 732,
      "Ġequation": 733,
      "Ġsequ": 734,
      "Ġfunction": 735,
      "nif": 736,
      "der": 737,
      "Ġremain": 738,
      "Ġmust": 739,
      "ments": 740,
      "12": 741,
      "|>\\": 742,
      "ves": 743,
      "Ġcurrent": 744,
      "Ġfinal": 745,
      "Ġdigit": 746,
      "..": 747,
      "ange": 748,
      "000": 749,
      "Ġsystem": 750,
      "Ġexample": 751,
      "Ġcomput": 752,
      "Ġdoes": 753,
      "Ġcheck": 754,
      "Ġover": 755,
      "Ġcy": 756,
      "Ġrefle": 757,
      "ues": 758,
      "Ġlar": 759,
      "ased": 760,
      "Ġtime": 761,
      "ile": 762,
      "Ġcalcul": 763,
      "Ġele": 764,
      "cond": 765,
      "Ġmight": 766,
      "ix": 767,
      "Ġmult": 768,
      "Ġconst": 769,
      "nthe": 770,
      "li": 771,
      "Ġed": 772,
      "ays": 773,
      "use": 774,
      "Ġsame": 775,
      "\\\\(": 776,
      "other": 777,
      "'}": 778,
      "ĠĠĠĠĠĠĠĠĠĠĠ": 779,
      "clu": 780,
      "ings": 781,
      "og": 782,
      "alle": 783,
      "Ġsolve": 784,
      "Ġhow": 785,
      "ans": 786,
      "Ġthey": 787,
      "**:\\": 788,
      "so": 789,
      "ted": 790,
      "Ġmake": 791,
      "ener": 792,
      "Ġsumm": 793,
      "cre": 794,
      "Ġanal": 795,
      "ater": 796,
      "Ġev": 797,
      "ngiven": 798,
      "',": 799,
      "od": 800,
      "Ġmod": 801,
      "Ġthem": 802,
      "Ġpart": 803,
      "ks": 804,
      "Ġinv": 805,
      "izing": 806,
      "sent": 807,
      "Ġmore": 808,
      "Ġcount": 809,
      "sum": 810,
      "Ġstart": 811,
      "Ġits": 812,
      "Ġsure": 813,
      "Ġtoo": 814,
      "Ġposition": 815,
      "Ġoutput": 816,
      "ices": 817,
      "Ġsee": 818,
      "}}": 819,
      "Ġfact": 820,
      "{\\\\": 821,
      "from": 822,
      "ens": 823,
      "Ġopt": 824,
      "cos": 825,
      "ph": 826,
      "Ġcondit": 827,
      "Ġass": 828,
      "nsim": 829,
      "Ġbased": 830,
      "Ġloo": 831,
      "Ġlike": 832,
      "ause": 833,
      "Ġprecise": 834,
      "Ġyour": 835,
      "Ġdivis": 836,
      "----": 837,
      "Ġsecond": 838,
      "nfirst": 839,
      "pend": 840,
      "Ġget": 841,
      "urate": 842,
      "Ġaccurate": 843,
      "ove": 844,
      "Ġback": 845,
      "Ġthree": 846,
      "ite": 847,
      "enter": 848,
      "nh": 849,
      "Ġsequence": 850,
      "value": 851,
      "ilarly": 852,
      "istant": 853,
      "ose": 854,
      "Ġiter": 855,
      "Ġcycle": 856,
      "Ġinvol": 857,
      "\",": 858,
      "Ġnew": 859,
      "nc": 860,
      "Ġsummar": 861,
      "Ġsides": 862,
      "Ġarr": 863,
      "Ġ`": 864,
      "ace": 865,
      "Ġdetail": 866,
      "fficient": 867,
      "Ġce": 868,
      "Ġmaximum": 869,
      "Ġsystematic": 870,
      "Ġcompute": 871,
      "Ġrequ": 872,
      "Ġquestions": 873,
      "Ġthinking": 874,
      "Ġright": 875,
      "Ġmatch": 876,
      "na": 877,
      "-----": 878,
      "Ġsummarizing": 879,
      "Ġformatted": 880,
      "Ġrequire": 881,
      "imal": 882,
      "Ġmulti": 883,
      "Ġ{'": 884,
      "))": 885,
      "aph": 886,
      "Ġvalues": 887,
      "ating": 888,
      "Ġside": 889,
      "Ġdistance": 890,
      "sin": 891,
      "Ġintegers": 892,
      "Ġlist": 893,
      "Ġchoo": 894,
      "Ġ20": 895,
      "fter": 896,
      "Ġgener": 897,
      "Ġexpression": 898,
      "pi": 899,
      "ound": 900,
      "Ġun": 901,
      "}\\\\": 902,
      "20": 903,
      "Ġinclu": 904,
      "Ġinterse": 905,
      "Ġpositions": 906,
      "trac": 907,
      "Ġorder": 908,
      "ots": 909,
      "Ġbecause": 910,
      "Ġear": 911,
      "Ġleast": 912,
      "par": 913,
      "Ġpositive": 914,
      "ular": 915,
      "Ġyou": 916,
      "Ġans": 917,
      "Ġ100": 918,
      ")(": 919,
      "Ġanswer": 920,
      "vers": 921,
      "Ġdoesn": 922,
      "Ġprint": 923,
      "king": 924,
      "ess": 925,
      "##": 926,
      "Ġag": 927,
      "Ġproper": 928,
      "Ġsat": 929,
      "Ġwhen": 930,
      "Ġeven": 931,
      "Ġformul": 932,
      "Ġvar": 933,
      "ied": 934,
      "):\\": 935,
      "ĠÎ": 936,
      "isf": 937,
      "ting": 938,
      "Ġrow": 939,
      "Ġta": 940,
      "Ġlog": 941,
      "Ġ(-": 942,
      "Ġman": 943,
      "}\\": 944,
      "Ġsatisf": 945,
      "Ġreach": 946,
      "igh": 947,
      "Ġprev": 948,
      "nsimilarly": 949,
      "Ġwhat": 950,
      "lier": 951,
      "ters": 952,
      "loor": 953,
      "Ġvalue": 954,
      "{(": 955,
      "Ġdeg": 956,
      "25": 957,
      "equ": 958,
      "Ġrec": 959,
      "plic": 960,
      "99": 961,
      "'t": 962,
      "Ġdirect": 963,
      "ases": 964,
      "Ġbefore": 965,
      "clus": 966,
      "Ġpath": 967,
      "Ġ\\\\).": 968,
      "Ġformula": 969,
      "ving": 970,
      "Ġearlier": 971,
      "Ġnon": 972,
      "Ġsample": 973,
      "Ġvert": 974,
      "nect": 975,
      "olutions": 976,
      "Īļ": 977,
      "ible": 978,
      "ice": 979,
      "pe": 980,
      "ssign": 981,
      "Ġprod": 982,
      "Ġpropert": 983,
      "ie": 984,
      "ints": 985,
      "Ġsolutions": 986,
      "ges": 987,
      "Ġread": 988,
      "leq": 989,
      "bin": 990,
      "Ġagain": 991,
      "Ġgraph": 992,
      "Ġhere": 993,
      "ig": 994,
      "}\\\\)": 995,
      "Ġmultiple": 996,
      "Ġnecess": 997,
      "set": 998,
      "16": 999,
      "nto": 1000,
      "Ġ16": 1001,
      "Ġ<=": 1002,
      "Ġden": 1003,
      "Ġangles": 1004,
      "Ġafter": 1005,
      "Ġnow": 1006,
      "ordin": 1007,
      "Ġmain": 1008,
      "age": 1009,
      "Ġadd": 1010,
      "no": 1011,
      "Ġalso": 1012,
      "Ġconnect": 1013,
      "ough": 1014,
      "Ġlong": 1015,
      "Ġzer": 1016,
      "Ġpar": 1017,
      "Ġprevious": 1018,
      "ys": 1019,
      "cir": 1020,
      "read": 1021,
      "}}{": 1022,
      "now": 1023,
      "Ġchoose": 1024,
      "clusion": 1025,
      "Ġpairs": 1026,
      "Ġspecific": 1027,
      "Ġoper": 1028,
      "Ġprov": 1029,
      "Ġassign": 1030,
      "Ġsqrt": 1031,
      "isit": 1032,
      "nder": 1033,
      "dd": 1034,
      "etr": 1035,
      "Ġabove": 1036,
      "Ġsepar": 1037,
      "Ġdigits": 1038,
      "Ġneeded": 1039,
      "Ġpoly": 1040,
      "Ġsmall": 1041,
      "Ġ==": 1042,
      "ucture": 1043,
      "][": 1044,
      "Ġ15": 1045,
      "app": 1046,
      "ps": 1047,
      "Ġgre": 1048,
      "Ġstructure": 1049,
      "ers": 1050,
      "Ġefficient": 1051,
      "term": 1052,
      "Ġcontain": 1053,
      "Ġlines": 1054,
      "Ġwor": 1055,
      "Ġfollowing": 1056,
      "Ġ>=": 1057,
      "Ġodd": 1058,
      "form": 1059,
      "Ġ11": 1060,
      "Ġens": 1061,
      "iding": 1062,
      "gr": 1063,
      "Ġproduct": 1064,
      "pm": 1065,
      "Ġcondition": 1066,
      "Ġelements": 1067,
      "ma": 1068,
      "Ġcell": 1069,
      "bf": 1070,
      "nmaybe": 1071,
      "Ġleft": 1072,
      "adi": 1073,
      "Ġinde": 1074,
      "rees": 1075,
      "Ġexact": 1076,
      "Ġori": 1077,
      "?\\": 1078,
      "Ġedges": 1079,
      "Ġide": 1080,
      "pect": 1081,
      "Ġlook": 1082,
      "Ġatt": 1083,
      "Ġbr": 1084,
      "Ġsort": 1085,
      "],": 1086,
      "Ġknow": 1087,
      "Ġcenter": 1088,
      "quad": 1089,
      "Ġless": 1090,
      "yth": 1091,
      "Ġprime": 1092,
      "Ġquestion": 1093,
      "Ġmy": 1094,
      "Ġverify": 1095,
      "Ġrange": 1096,
      "Ġinclude": 1097,
      "Ġ\\\\[": 1098,
      "Ġchar": 1099,
      "Ġwill": 1100,
      "final": 1101,
      "Ġincre": 1102,
      "Ġseg": 1103,
      "its": 1104,
      "plement": 1105,
      "15": 1106,
      "Ġcould": 1107,
      "ator": 1108,
      "Ġhand": 1109,
      "nsu": 1110,
      "Ġdp": 1111,
      "pha": 1112,
      "Ġcle": 1113,
      "Ġproperties": 1114,
      "ĨĴ": 1115,
      "allest": 1116,
      "Ġplan": 1117,
      "ually": 1118,
      "Ġcoordin": 1119,
      "empt": 1120,
      "``": 1121,
      "100": 1122,
      "Ġgu": 1123,
      "ility": 1124,
      "Ġ\\\\):\\": 1125,
      "thet": 1126,
      "Ġunder": 1127,
      "Ġer": 1128,
      "que": 1129,
      "Ġconstra": 1130,
      "he": 1131,
      "Ġorigin": 1132,
      "(\\\\": 1133,
      "Ġdeterm": 1134,
      "Ġdon": 1135,
      "urn": 1136,
      "ying": 1137,
      "âĢ": 1138,
      "ĠâĨĴ": 1139,
      "Ġâī¤": 1140,
      "Ġadj": 1141,
      "ds": 1142,
      "Ġanother": 1143,
      "Ġsmallest": 1144,
      "cy": 1145,
      "Ġ18": 1146,
      "Ġhel": 1147,
      "Ġwell": 1148,
      "les": 1149,
      "np": 1150,
      "Ġconf": 1151,
      "gest": 1152,
      "Ġ25": 1153,
      "Ġfour": 1154,
      "Ġzero": 1155,
      "\\\\)\\": 1156,
      "ute": 1157,
      "Ġclear": 1158,
      "Ġgrou": 1159,
      "Ġvertices": 1160,
      "ording": 1161,
      "},": 1162,
      "Ġnecessary": 1163,
      "Ġbetter": 1164,
      "Ġfollows": 1165,
      "Ġdirectly": 1166,
      "Ġke": 1167,
      "inct": 1168,
      "math": 1169,
      "mm": 1170,
      "ict": 1171,
      "itial": 1172,
      "Ġ13": 1173,
      "Ġgo": 1174,
      "Ġ\\\\[\\": 1175,
      "velo": 1176,
      "ences": 1177,
      "Ġreflection": 1178,
      "ert": 1179,
      "nper": 1180,
      "bo": 1181,
      "Ġexactly": 1182,
      "Ġerr": 1183,
      "Ġact": 1184,
      "res": 1185,
      "Ġpresent": 1186,
      "Ġend": 1187,
      "ives": 1188,
      "Ġsimilar": 1189,
      "Ġdistinct": 1190,
      "theta": 1191,
      ")=": 1192,
      "Ġshow": 1193,
      "Ġcalculate": 1194,
      "Ġtimes": 1195,
      "Ġrepre": 1196,
      "ason": 1197,
      "Ġrequires": 1198,
      "Ġwin": 1199,
      "Ġensure": 1200,
      "row": 1201,
      "alpha": 1202,
      "imize": 1203,
      "Ġquad": 1204,
      "Ġinvolves": 1205,
      "__": 1206,
      "cept": 1207,
      "Ġreason": 1208,
      ").": 1209,
      "Ġcode": 1210,
      "ython": 1211,
      "Ġstring": 1212,
      "**:": 1213,
      "Ġtang": 1214,
      "Ġcolum": 1215,
      "ding": 1216,
      "Ġminimal": 1217,
      "Ġcolor": 1218,
      "*(": 1219,
      "ick": 1220,
      "ppose": 1221,
      "Ġdegrees": 1222,
      "Ġmany": 1223,
      "}^{": 1224,
      "thing": 1225,
      "Ġrele": 1226,
      "agon": 1227,
      "lect": 1228,
      "consider": 1229,
      "Ġreflections": 1230,
      "Ġminimum": 1231,
      "bab": 1232,
      "Ġattempt": 1233,
      "Ġspecified": 1234,
      "Ġcharac": 1235,
      "Ġaccording": 1236,
      "Ġmatches": 1237,
      "ysis": 1238,
      "Ġconstraints": 1239,
      "vant": 1240,
      "Ġel": 1241,
      "Ġexist": 1242,
      "Ġconclusion": 1243,
      "Ġlead": 1244,
      "Ġanalysis": 1245,
      "Ġresult": 1246,
      "Ġwithout": 1247,
      "Ġsc": 1248,
      "rib": 1249,
      "Ġ#": 1250,
      "13": 1251,
      "Ġseparated": 1252,
      "Ġeng": 1253,
      "Ġam": 1254,
      "$\\": 1255,
      "dent": 1256,
      "Ġimplement": 1257,
      "Ġconsidering": 1258,
      "orough": 1259,
      "Ġthorough": 1260,
      "oc": 1261,
      "Ġhigh": 1262,
      "Ġbc": 1263,
      "Ġsimpl": 1264,
      "Ġvarious": 1265,
      "Ġ->": 1266,
      "stand": 1267,
      "Ġrev": 1268,
      "\\',": 1269,
      "Ġreg": 1270,
      "Ġ14": 1271,
      ":**": 1272,
      "lines": 1273,
      "ved": 1274,
      "nperhaps": 1275,
      "nwh": 1276,
      "Ġrelevant": 1277,
      "gative": 1278,
      "velop": 1279,
      "Ġtriangles": 1280,
      "Ġrole": 1281,
      "Ġreasoning": 1282,
      "aging": 1283,
      "nan": 1284,
      "Ġdevelop": 1285,
      "ensive": 1286,
      "Ġbacktrac": 1287,
      "fix": 1288,
      "nsince": 1289,
      "Ġassum": 1290,
      "Ġdivisible": 1291,
      "Ġrespon": 1292,
      "icular": 1293,
      "str": 1294,
      "ild": 1295,
      "vect": 1296,
      "Ġiteration": 1297,
      "Ġprobab": 1298,
      "ĠÏ": 1299,
      "ote": 1300,
      "Ġcomple": 1301,
      "'m": 1302,
      "Ġerrors": 1303,
      "geq": 1304,
      "fining": 1305,
      "Ġsections": 1306,
      "cum": 1307,
      "14": 1308,
      "sy": 1309,
      "iled": 1310,
      "Ġlarge": 1311,
      "Ġcomplic": 1312,
      "Ġmeans": 1313,
      "Ġattempts": 1314,
      "Ġdis": 1315,
      "ithm": 1316,
      "Ġbrain": 1317,
      "your": 1318,
      "output": 1319,
      "isiting": 1320,
      "adius": 1321,
      "]}": 1322,
      "Ġresponse": 1323,
      "Ġcu": 1324,
      "Ġproviding": 1325,
      "xed": 1326,
      "Ġple": 1327,
      "kes": 1328,
      "Ġcompre": 1329,
      "Ġcompreh": 1330,
      "Ġcomm": 1331,
      "Ġconsiderations": 1332,
      "Ġdetailed": 1333,
      "Ġlogical": 1334,
      "des": 1335,
      "ĠĠĠĠĠĠĠĠĠĠĠĠĠĠĠ": 1336,
      "Ġfe": 1337,
      "yle": 1338,
      "racy": 1339,
      "ities": 1340,
      "Ġguide": 1341,
      "Ġdifference": 1342,
      "Ġaccu": 1343,
      "Ġreal": 1344,
      "Ġaccuracy": 1345,
      "Ġassistant": 1346,
      "Ġred": 1347,
      "Ġexploring": 1348,
      "Ġsystematically": 1349,
      "Ġverifying": 1350,
      "Ġrevisiting": 1351,
      "Ġideas": 1352,
      "Ġcomprehensive": 1353,
      "Ġplay": 1354,
      "Ġoriginal": 1355,
      "Ġplease": 1356,
      "âĢĻ": 1357,
      "user": 1358,
      "Ġcircum": 1359,
      "Ġconcise": 1360,
      "Ġfindings": 1361,
      "Ġ'\\": 1362,
      "-----\\": 1363,
      "Ġpower": 1364,
      "ati": 1365,
      "...": 1366,
      "Ġexploration": 1367,
      "versations": 1368,
      "ful": 1369,
      "system": 1370,
      ":\",": 1371,
      "Ġthoroughly": 1372,
      "Ġguidelines": 1373,
      "Ġstyle": 1374,
      "Ġreass": 1375,
      "essment": 1376,
      "storm": 1377,
      "Ġvect": 1378,
      "Ġ[{": 1379,
      "Ġrefining": 1380,
      "Ġbrainstorm": 1381,
      "assistant": 1382,
      "Ġengaging": 1383,
      "Ġdeem": 1384,
      "Ġexplorations": 1385,
      "considered": 1386,
      "Ġbrainstorming": 1387,
      "Ġreassessment": 1388,
      "isying": 1389,
      "conversations": 1390,
      "Ġanalisying": 1391,
      "Ġbacktracing": 1392,
      "Ġ[{'": 1393,
      "})": 1394,
      "rix": 1395,
      "nanother": 1396,
      "Ġmove": 1397,
      "respon": 1398,
      "Ġcost": 1399,
      "Ġgives": 1400,
      "line": 1401,
      "Ġcomplicated": 1402,
      "Ġcorrespon": 1403,
      "omial": 1404,
      "ck": 1405,
      "Ġbu": 1406,
      "Ġcoordinates": 1407,
      "com": 1408,
      "Ġroots": 1409,
      "Ġuni": 1410,
      "Ġtake": 1411,
      "ateral": 1412,
      "Ġheight": 1413,
      "Ġfactor": 1414,
      "Ġsubset": 1415,
      "boxed": 1416,
      "Ġwr": 1417,
      "Ġstill": 1418,
      "Ġ24": 1419,
      "ency": 1420,
      "plies": 1421,
      "\\\\).": 1422,
      "Ġrepresent": 1423,
      "ear": 1424,
      "ron": 1425,
      "Ġedge": 1426,
      "ertain": 1427,
      "Ġsomething": 1428,
      "Ġrati": 1429,
      "18": 1430,
      "Ġbase": 1431,
      "24": 1432,
      "mpt": 1433,
      "Ġcertain": 1434,
      "(-": 1435,
      "âĪļ": 1436,
      "lf": 1437,
      "Ġbl": 1438,
      "Ġvalid": 1439,
      "Ġremaining": 1440,
      "Ġtest": 1441,
      "port": 1442,
      "Ġcombin": 1443,
      "Ġgeneral": 1444,
      "Ġmean": 1445,
      "Ġcos": 1446,
      "Ġind": 1447,
      "Ġunderstand": 1448,
      "Ġsatisfy": 1449,
      "tex": 1450,
      "Ġhol": 1451,
      "otal": 1452,
      "}{\\\\": 1453,
      "Ġwithin": 1454,
      "Ġintersection": 1455,
      "asing": 1456,
      "Ġhelp": 1457,
      "Ġinitial": 1458,
      "rack": 1459,
      "Ġcases": 1460,
      "Ġstarting": 1461,
      "$,": 1462,
      "arr": 1463,
      "Ġhandle": 1464,
      "Ġbit": 1465,
      "Ġdefin": 1466,
      "nsuppose": 1467,
      "Ġgreater": 1468,
      "Ġoperations": 1469,
      "ided": 1470,
      "ata": 1471,
      "one": 1472,
      "Ġnext": 1473,
      "nfrom": 1474,
      "hehe": 1475,
      "ready": 1476,
      "Ġkeep": 1477,
      "Ġte": 1478,
      "Ġmid": 1479,
      "'},": 1480,
      "###": 1481,
      "ement": 1482,
      "}\\\\),": 1483,
      ")\\\\)": 1484,
      "Ġarray": 1485,
      "Ġrect": 1486,
      "Ġvertex": 1487,
      "ometr": 1488,
      "ny": 1489,
      "Ġrecall": 1490,
      "equal": 1491,
      "pendicular": 1492,
      "Ġpython": 1493,
      "ĠÃ": 1494,
      "60": 1495,
      "omin": 1496,
      "Ġperpendicular": 1497,
      "aces": 1498,
      "Ġgroup": 1499,
      "turn": 1500,
      "Ġallow": 1501,
      "Ġalready": 1502,
      "Ġintersect": 1503,
      "nthus": 1504,
      "Ġfloor": 1505,
      "Ġdef": 1506,
      "Ġgrid": 1507,
      "Ġdes": 1508,
      "Ġcover": 1509,
      "Ġbeing": 1510,
      "ract": 1511,
      "Ġcons": 1512,
      "Ġ}": 1513,
      "not": 1514,
      "Ġinequal": 1515,
      "Ġrespect": 1516,
      "Ġlast": 1517,
      "nand": 1518,
      "Ġword": 1519,
      "Ġgetting": 1520,
      "Ġcommon": 1521,
      "side": 1522,
      "Ġtangent": 1523,
      "Ġsin": 1524,
      "Ġbound": 1525,
      "Ġsums": 1526,
      "plit": 1527,
      "ption": 1528,
      "Ġident": 1529,
      "Ġmodul": 1530,
      "Ġdetermine": 1531,
      "equiv": 1532,
      "Ġunique": 1533,
      "Ġprefix": 1534,
      "ug": 1535,
      "hip": 1536,
      ")}": 1537,
      "Ġsquares": 1538,
      "Ġty": 1539,
      "Ġconnected": 1540,
      "Ġfre": 1541,
      "Ġap": 1542,
      "Ġpass": 1543,
      "\"\\": 1544,
      "over": 1545,
      "Ġstu": 1546,
      "Ġactually": 1547,
      "nomial": 1548,
      "Ġever": 1549,
      "textbf": 1550,
      "Ġrelated": 1551,
      "Ġwork": 1552,
      "Â°": 1553,
      "di": 1554,
      "Ġpolynomial": 1555,
      "Ġdifferently": 1556,
      "ither": 1557,
      "Ġ30": 1558,
      "ffect": 1559,
      "Ġjust": 1560,
      "Ġlengths": 1561,
      "Ġplane": 1562,
      "Ġtrans": 1563,
      "Ġrelations": 1564,
      "Ġcircles": 1565,
      "Ġ+=": 1566,
      "^\\\\": 1567,
      "Ġoptions": 1568,
      "Ġday": 1569,
      "Ġmis": 1570,
      "Ġbin": 1571,
      "ird": 1572,
      "Ġnegative": 1573,
      "Ġcoe": 1574,
      "Ġcontains": 1575,
      "qquad": 1576,
      "Ġperm": 1577,
      "Ġmodulo": 1578,
      "Ġequations": 1579,
      "circ": 1580,
      "Ġsw": 1581,
      "Ġsmaller": 1582,
      "Ġcard": 1583,
      "Ġrectangle": 1584,
      "Ġselect": 1585,
      "Ġconditions": 1586,
      "Ġ19": 1587,
      "din": 1588,
      "ward": 1589,
      "Ġelse": 1590,
      "17": 1591,
      "Ġtrack": 1592,
      "ign": 1593,
      "def": 1594,
      "Ġadjac": 1595,
      "Ġroot": 1596,
      "circle": 1597,
      "sing": 1598,
      "co": 1599,
      "Ġlarger": 1600,
      "nwe": 1601,
      "hed": 1602,
      "):": 1603,
      "Ġtop": 1604,
      "ational": 1605,
      "Ġconsist": 1606,
      "Ġways": 1607,
      "wise": 1608,
      "ex": 1609,
      "))\\": 1610,
      "Ġsing": 1611,
      "Ġoption": 1612,
      "ponent": 1613,
      "Ġabc": 1614,
      "Ġcells": 1615,
      "((": 1616,
      "Ġconstant": 1617,
      "ately": 1618,
      "ari": 1619,
      "Ġpat": 1620,
      "Ġ50": 1621,
      "ceed": 1622,
      "ĠâĪļ": 1623,
      "19": 1624,
      "Ġefficiently": 1625,
      "50": 1626,
      "vec": 1627,
      "()\\": 1628,
      "Ġarrang": 1629,
      "Ġsize": 1630,
      "Ġiterate": 1631,
      "Ġwait": 1632,
      "Ġcolumn": 1633,
      "del": 1634,
      "}(": 1635,
      "Ġent": 1636,
      "ever": 1637,
      "ances": 1638,
      "log": 1639,
      "Ġpermut": 1640,
      "Ġclo": 1641,
      "Ġ-\\\\": 1642,
      "ind": 1643,
      "Ġrelationship": 1644,
      "Ġprobability": 1645,
      "Ġradius": 1646,
      "Ġsays": 1647,
      "Ġmost": 1648,
      "Ġsingle": 1649,
      "Ġtree": 1650,
      "Ġsay": 1651,
      "gon": 1652,
      "Ġlargest": 1653,
      "Ġexists": 1654,
      "Ġob": 1655,
      "Ġevery": 1656,
      "gy": 1657,
      "Ġ200": 1658,
      "nx": 1659,
      "Ġinterval": 1660,
      "Ġ&": 1661,
      "^{-": 1662,
      "possible": 1663,
      "Ġfix": 1664,
      "ax": 1665,
      "to": 1666,
      "Ġdivides": 1667,
      "Ġcl": 1668,
      "ways": 1669,
      "Ġtrue": 1670,
      "Ġnode": 1671,
      "Ġused": 1672,
      "Ġratio": 1673,
      "Ġav": 1674,
      "point": 1675,
      "ĠÎ¸": 1676,
      "Ġ17": 1677,
      "ood": 1678,
      "Ġ60": 1679,
      "omes": 1680,
      "Ġparalle": 1681,
      ")}\\\\": 1682,
      "nalso": 1683,
      "Ġmoves": 1684,
      "ition": 1685,
      "Ġelement": 1686,
      "ross": 1687,
      "Ġ...": 1688,
      "ail": 1689,
      "isect": 1690,
      "ponents": 1691,
      "Ġrelate": 1692,
      "Ġsegments": 1693,
      "bd": 1694,
      "Ġinequality": 1695,
      "Ġreturn": 1696,
      "]=": 1697,
      "Ġge": 1698,
      "Ġdenote": 1699,
      "for": 1700,
      "und": 1701,
      "0000": 1702,
      "Ġplace": 1703,
      "rf": 1704,
      "Ġshe": 1705,
      "gor": 1706,
      "Ġcomplex": 1707,
      ":**\\": 1708,
      "anges": 1709,
      "Ġlow": 1710,
      "Ġbecomes": 1711,
      "Ġstand": 1712,
      "ake": 1713,
      "ls": 1714,
      "30": 1715,
      "])\\": 1716,
      "Ġsys": 1717,
      "```": 1718,
      "own": 1719,
      "Ġrot": 1720,
      "Ġsegment": 1721,
      "sec": 1722,
      "etic": 1723,
      "check": 1724,
      "stit": 1725,
      "av": 1726,
      "max": 1727,
      "posit": 1728,
      "nne": 1729,
      "Ġ\\\\((": 1730,
      "Ġeither": 1731,
      "count": 1732,
      "40": 1733,
      "33": 1734,
      "Ġthose": 1735,
      "$$\\": 1736,
      "dition": 1737,
      "Ġalways": 1738,
      "Ġquadr": 1739,
      "ga": 1740,
      "Ġunits": 1741,
      "Ġgeometr": 1742,
      "Ġbisect": 1743,
      "ndef": 1744,
      "ĠÃĹ": 1745,
      "fect": 1746,
      "Ġoverl": 1747,
      "sequ": 1748,
      "Ġvari": 1749,
      "Ġthird": 1750,
      "Ġadjacent": 1751,
      "edi": 1752,
      "Ġ40": 1753,
      "pmod": 1754,
      "Ġtheore": 1755,
      "tract": 1756,
      "Ġdenomin": 1757,
      "ively": 1758,
      "Ġpattern": 1759,
      "olum": 1760,
      "pro": 1761,
      "ak": 1762,
      "Ġ36": 1763,
      "\".\\": 1764,
      "Ġdec": 1765,
      "Ġperform": 1766,
      "uch": 1767,
      "secut": 1768,
      "Ġgcd": 1769,
      "Ġcomp": 1770,
      "iply": 1771,
      "ntotal": 1772,
      ")}{": 1773,
      "Ġfactors": 1774,
      "ale": 1775,
      "omega": 1776,
      "Ġstra": 1777,
      "Ġax": 1778,
      "Ġext": 1779,
      "min": 1780,
      "ially": 1781,
      "Ġnodes": 1782,
      "noutput": 1783,
      "raw": 1784,
      "Ġ90": 1785,
      "Ġstraight": 1786,
      "Ġdistances": 1787,
      "agonal": 1788,
      "ual": 1789,
      "Ġcharacters": 1790,
      "Ġdivide": 1791,
      "mathbf": 1792,
      "nst": 1793,
      "here": 1794,
      "secutive": 1795,
      "Ġdown": 1796,
      "ninput": 1797,
      "Ġminute": 1798,
      "ril": 1799,
      "32": 1800,
      "Ġblo": 1801,
      "Ġfrequ": 1802,
      "round": 1803,
      "Ġvector": 1804,
      "Ġsorted": 1805,
      "Ġfl": 1806,
      "verse": 1807,
      "Ġwhile": 1808,
      "Ġsymm": 1809,
      "ject": 1810,
      "Ġsequences": 1811,
      "Ġdou": 1812,
      "nhence": 1813,
      ")^{": 1814,
      "Ġtheorem": 1815,
      "Ġ\\\\\\\\": 1816,
      "Ġconsecutive": 1817,
      "Ġremo": 1818,
      "Ġru": 1819,
      "36": 1820,
      "Ġdivided": 1821,
      "Ġstandard": 1822,
      "Ġins": 1823,
      "Ġletters": 1824,
      "ants": 1825,
      "\\\\):\\": 1826,
      "Ġsen": 1827,
      "imiz": 1828,
      "Ġcannot": 1829,
      "rilateral": 1830,
      "200": 1831,
      "Ġsug": 1832,
      "Ġarc": 1833,
      "Ġfract": 1834,
      "Ġonce": 1835,
      "Ġindex": 1836,
      "Ġdecre": 1837,
      "Ġ1000": 1838,
      "Ġbinary": 1839,
      "ighb": 1840,
      "nalright": 1841,
      "Ġquadrilateral": 1842,
      "bda": 1843,
      "ambda": 1844,
      ",\\": 1845,
      "Ġdepend": 1846,
      "binom": 1847,
      "Ġareas": 1848,
      "Ġcharacter": 1849,
      "Ġgot": 1850,
      "Ġmaximize": 1851,
      "Ġâĩ": 1852,
      "nse": 1853,
      "Ġmeaning": 1854,
      "Ġentire": 1855,
      "Ġparallel": 1856,
      "ĠâĩĴ": 1857,
      "ribut": 1858,
      "Ġchange": 1859,
      "Ġrequired": 1860,
      "Ġsuggest": 1861,
      "Ġ$\\\\": 1862,
      "Ġcare": 1863,
      "Ġfound": 1864,
      "Ġla": 1865,
      "}\\\\).\\": 1866,
      "digit": 1867,
      "lambda": 1868,
      ")*": 1869,
      "gorithm": 1870,
      "Ġdouble": 1871,
      "Ġlinear": 1872,
      "ply": 1873,
      "Ġaccept": 1874,
      "fficients": 1875,
      "pr": 1876,
      "Ġdiagonal": 1877,
      "].\\": 1878,
      "Ġvariable": 1879,
      ")/(": 1880,
      "ÏĢ": 1881,
      "Ġcoefficients": 1882,
      "Ġcalculation": 1883,
      "Ġcre": 1884,
      "apping": 1885,
      "Ġ\\\\):": 1886,
      "Ġph": 1887,
      "Ġperfect": 1888,
      "21": 1889,
      "75": 1890,
      "gram": 1891,
      "Ġwrite": 1892,
      "Ġmodel": 1893,
      "Ġsatisfies": 1894,
      "Ġsymmetr": 1895,
      "}]}": 1896,
      "Ġinfin": 1897,
      "Ġ\"<|": 1898,
      "cc": 1899,
      "Ġsense": 1900,
      "atrix": 1901,
      "Ġpe": 1902,
      "Ġoperation": 1903,
      "Ġblack": 1904,
      "Ġquadratic": 1905,
      "Ġinc": 1906,
      "\"}]}": 1907,
      "Ġvolum": 1908,
      "ced": 1909,
      "Ġalgorithm": 1910,
      "Ġoff": 1911,
      "Ġcircumcircle": 1912,
      "Ġinside": 1913,
      "get": 1914,
      "ott": 1915,
      "Ġcho": 1916,
      "Ġdefine": 1917,
      "Ġopp": 1918,
      "Ġhal": 1919,
      "ĠâīĪ": 1920,
      "ib": 1921,
      "uring": 1922,
      "Ġcd": 1923,
      "rection": 1924,
      "Ġleading": 1925,
      "ĠâĪ": 1926,
      "ĠâĢ": 1927,
      "Ġsubsequ": 1928,
      "arch": 1929,
      "Ġwas": 1930,
      "Ġsubstr": 1931,
      "Ġcent": 1932,
      "Ġassume": 1933,
      "Ġstates": 1934,
      "Ġweight": 1935,
      "nwhich": 1936,
      "Ġ%": 1937,
      "nre": 1938,
      "Ġfaces": 1939,
      "Ġcareful": 1940,
      "Î¸": 1941,
      "Ġrows": 1942,
      "Ġempt": 1943,
      "ically": 1944,
      "Ġholds": 1945,
      "Ġcorrectly": 1946,
      "Ġmon": 1947,
      "Ġmakes": 1948,
      "Ġdirection": 1949,
      "rox": 1950,
      "Ġleve": 1951,
      "28": 1952,
      "Ġindeed": 1953,
      "Ġhigher": 1954,
      "Ġwho": 1955,
      "nhow": 1956,
      "ches": 1957,
      "ears": 1958,
      "ä¸": 1959,
      "Ġwords": 1960,
      "oriz": 1961,
      "Ġdata": 1962,
      "ague": 1963,
      "Ġdegree": 1964,
      "Ġplayer": 1965,
      "pute": 1966,
      "Ġdays": 1967,
      "Ġempty": 1968,
      "Ġ27": 1969,
      "Ġcolors": 1970,
      "ish": 1971,
      "Ġ'<|": 1972,
      "ield": 1973,
      "'}]}": 1974,
      "ner": 1975,
      "son": 1976,
      "Ġamong": 1977,
      "Ġexpressed": 1978,
      "Ġdenominator": 1979,
      "Ġsimplify": 1980,
      "Ġdesc": 1981,
      "Ġalong": 1982,
      "Ġincreasing": 1983,
      "approx": 1984,
      "Ġplac": 1985,
      "Ġfunctions": 1986,
      "Ġparts": 1987,
      "Ġsets": 1988,
      "Ġâī¡": 1989,
      "Ġvague": 1990,
      "Ġdivisors": 1991,
      "Ġaddition": 1992,
      "$.": 1993,
      "Ġ$$": 1994,
      "Ġbuild": 1995,
      "Ġfinding": 1996,
      "arily": 1997,
      "orizon": 1998,
      "Ġredu": 1999,
      "Ġcall": 2000,
      "Ġneighb": 2001,
      "Ġfig": 2002,
      "itu": 2003,
      "Ġstate": 2004,
      "Ġchanges": 2005,
      "tan": 2006,
      "ory": 2007,
      "urs": 2008,
      "Ġinvolved": 2009,
      "Ġmess": 2010,
      "Ġcoin": 2011,
      "Ġrepe": 2012,
      "Ġdraw": 2013,
      "Ġ180": 2014,
      "Ġyes": 2015,
      "Ġprove": 2016,
      "input": 2017,
      "hedron": 2018,
      "Ġhalf": 2019,
      "Ġcube": 2020,
      "Ġmar": 2021,
      "Ġmatrix": 2022,
      "Ġvolume": 2023,
      "Ġfigure": 2024,
      "Ġbre": 2025,
      "Ġbott": 2026,
      "ade": 2027,
      "Ġtherefore": 2028,
      "Ġach": 2029,
      "ask": 2030,
      "nhmm": 2031,
      "Ġneeds": 2032,
      "Ġmist": 2033,
      "Ġaround": 2034,
      "Ġ32": 2035,
      "Ġaffect": 2036,
      "Ġstat": 2037,
      "Ġhorizon": 2038,
      "up": 2039,
      "using": 2040,
      "Ġprimes": 2041,
      "osit": 2042,
      "Ġadjust": 2043,
      "Ġapprox": 2044,
      "Ġachie": 2045,
      "Ġminimize": 2046,
      "nyes": 2047,
      "|>\"}]}": 2048,
      "amma": 2049,
      "kay": 2050,
      "Ġapproxim": 2051,
      "Ġ!": 2052,
      "Ġexp": 2053,
      "nhowever": 2054,
      "Ġser": 2055,
      "Ġpaths": 2056,
      "valid": 2057,
      "Ġbox": 2058,
      "utes": 2059,
      "hehehehe": 2060,
      "Ġimplies": 2061,
      "Ġremove": 2062,
      "irm": 2063,
      "Ġtype": 2064,
      "the": 2065,
      "Ġ(\\\\": 2066,
      "Ġcolumns": 2067,
      "iles": 2068,
      "Ġener": 2069,
      "oid": 2070,
      "plify": 2071,
      "neq": 2072,
      "Ġsign": 2073,
      "27": 2074,
      "Ġsimplif": 2075,
      "ameter": 2076,
      "Ġchild": 2077,
      "Ġaver": 2078,
      "ldots": 2079,
      "Ġremainder": 2080,
      "implies": 2081,
      "beta": 2082,
      "abc": 2083,
      "Ġformed": 2084,
      "**\\": 2085,
      "Ġnumer": 2086,
      "Ġstud": 2087,
      "iod": 2088,
      "Ġconfirm": 2089,
      "Ġquer": 2090,
      "nis": 2091,
      "ailable": 2092,
      "Ġcub": 2093,
      "/(": 2094,
      "64": 2095,
      "Ġplus": 2096,
      "Ġgive": 2097,
      "ry": 2098,
      "Ġcards": 2099,
      "arget": 2100,
      "Ġca": 2101,
      "Ġsk": 2102,
      "osite": 2103,
      "nnext": 2104,
      "$$": 2105,
      "\\\\[\\\\": 2106,
      "formation": 2107,
      "nsample": 2108,
      "23": 2109,
      "phi": 2110,
      ")\\\\),": 2111,
      "Ġpie": 2112,
      "Ġvectors": 2113,
      "Ġhour": 2114,
      "name": 2115,
      "Ġcand": 2116,
      "Ġ!=": 2117,
      "Ġsa": 2118,
      "Ġlower": 2119,
      "Ġmeth": 2120,
      "fs": 2121,
      "ending": 2122,
      "Ġdefined": 2123,
      "ature": 2124,
      "Ġopposite": 2125,
      "Ġvisit": 2126,
      "Ġxor": 2127,
      "Ġpolygon": 2128,
      "Ġcorresponding": 2129,
      "cm": 2130,
      "bb": 2131,
      "Ġapply": 2132,
      "Ġproceed": 2133,
      "ncom": 2134,
      "Ġteam": 2135,
      "air": 2136,
      "noption": 2137,
      "Ġ45": 2138,
      "Ġsplit": 2139,
      "Ġrational": 2140,
      "Ġhy": 2141,
      "}.\\": 2142,
      "Ġround": 2143,
      "ub": 2144,
      "nsub": 2145,
      "riend": 2146,
      "Ġdetermin": 2147,
      "Ġocc": 2148,
      "Ġgood": 2149,
      "Ġfrequency": 2150,
      "cdots": 2151,
      "Ġwind": 2152,
      "Ġsubstit": 2153,
      "80": 2154,
      "ats": 2155,
      "22": 2156,
      "Ġhis": 2157,
      "Ġder": 2158,
      "nsimplify": 2159,
      "Ġconstr": 2160,
      "Ġisn": 2161,
      "Ġspace": 2162,
      "Ġsuggests": 2163,
      "Ġlen": 2164,
      "Ġequil": 2165,
      "Ġslow": 2166,
      "loo": 2167,
      "Ġconc": 2168,
      "Ġpermutation": 2169,
      "Ġ21": 2170,
      "orrect": 2171,
      "Ġperiod": 2172,
      "npr": 2173,
      "Ġexponent": 2174,
      "1111": 2175,
      "stdin": 2176,
      "().": 2177,
      "Ġenergy": 2178,
      "arrow": 2179,
      "}^": 2180,
      "Ġabs": 2181,
      "mod": 2182,
      "66": 2183,
      "Ġmultiply": 2184,
      "Ġunit": 2185,
      "Ġlim": 2186,
      "Ġspe": 2187,
      "Ġregular": 2188,
      "Ġ64": 2189,
      "main": 2190,
      "lfloor": 2191,
      "Ġaverage": 2192,
      "ln": 2193,
      "rfloor": 2194,
      "Ġfixed": 2195,
      "iction": 2196,
      "Ġscore": 2197,
      "Ġface": 2198,
      "'ve": 2199,
      "Ġmethod": 2200,
      "split": 2201,
      "ssib": 2202,
      "Ġimpossible": 2203,
      "Ġlies": 2204,
      "append": 2205,
      ";\\": 2206,
      "yes": 2207,
      "Ġsubsets": 2208,
      "90": 2209,
      "Ġwhe": 2210,
      "oun": 2211,
      "Ġsubtract": 2212,
      "Ġwindow": 2213,
      "pmatrix": 2214,
      "}$": 2215,
      "Ġallowed": 2216,
      "Ġimport": 2217,
      "Ġwins": 2218,
      "forward": 2219,
      ".,": 2220,
      "axis": 2221,
      "Ġnecessarily": 2222,
      "Ġwhite": 2223,
      "imeter": 2224,
      "Ġcycles": 2225,
      "umber": 2226,
      "Ġreact": 2227,
      "Ġstraightforward": 2228,
      "Ġloc": 2229,
      "fer": 2230,
      "Ġdefinition": 2231,
      "Ġmidpoint": 2232,
      ",-": 2233,
      "Ġprogram": 2234,
      "ounds": 2235,
      "pper": 2236,
      "Ġfraction": 2237,
      "bc": 2238,
      ")]": 2239,
      "ars": 2240,
      "ging": 2241,
      "Ġconve": 2242,
      "points": 2243,
      "igur": 2244,
      "nprint": 2245,
      "Ġgame": 2246,
      "ĠÏĢ": 2247,
      "case": 2248,
      "Ġcross": 2249,
      "Ġ28": 2250,
      "Ġvertical": 2251,
      "ser": 2252,
      "Ġrespectively": 2253,
      "cks": 2254,
      "Ġcounts": 2255,
      "ets": 2256,
      "ral": 2257,
      "Ġcm": 2258,
      "Ġfriend": 2259,
      "Ġsearch": 2260,
      "45": 2261,
      "Ġavailable": 2262,
      "vert": 2263,
      "Ġbd": 2264,
      "led": 2265,
      "Ġminutes": 2266,
      "Ġstrings": 2267,
      "Ġconfigur": 2268,
      "Ġhold": 2269,
      "Ġceil": 2270,
      "pos": 2271,
      "Ġexpect": 2272,
      "ior": 2273,
      "nloo": 2274,
      "ape": 2275,
      "nsum": 2276,
      "Ġroom": 2277,
      "pes": 2278,
      "ĠÂ": 2279,
      "Ġstudents": 2280,
      "since": 2281,
      "Ġtarget": 2282,
      "Ġequals": 2283,
      "Ġ120": 2284,
      "Ġsl": 2285,
      "(\"": 2286,
      "Ġindices": 2287,
      "data": 2288,
      "Ġcr": 2289,
      "Ġpossib": 2290,
      "Ġcorresponds": 2291,
      "gether": 2292,
      "Ġmistake": 2293,
      "Ġinfinite": 2294,
      "imin": 2295,
      "ization": 2296,
      "tri": 2297,
      "Ġmade": 2298,
      "Ġsimply": 2299,
      "rightarrow": 2300,
      "Ġpartic": 2301,
      "Ġadding": 2302,
      "ten": 2303,
      "Ġslo": 2304,
      "Ġaccordingly": 2305,
      "ople": 2306,
      "Ġ...,": 2307,
      "Ġhorizontal": 2308,
      "anation": 2309,
      "Ġdifferences": 2310,
      "Ġincreases": 2311,
      "Ġgeometry": 2312,
      "ements": 2313,
      "el": 2314,
      "arent": 2315,
      "Ġlie": 2316,
      "Ġstdin": 2317,
      "Ġperson": 2318,
      "Ġhelps": 2319,
      "Ġthus": 2320,
      "calcul": 2321,
      "ĠĠĠĠĠĠĠĠĠĠĠĠĠĠĠĠĠĠĠ": 2322,
      "self": 2323,
      "ific": 2324,
      "Ġshare": 2325,
      "Ġstarts": 2326,
      "rad": 2327,
      "ning": 2328,
      "Ġmath": 2329,
      "Ġbottom": 2330,
      "Ġmap": 2331,
      "ts": 2332,
      "Ġgroups": 2333,
      "Ġconvex": 2334,
      "```\\": 2335,
      "Ġidea": 2336,
      "ress": 2337,
      "Ġtriple": 2338,
      "Ġvi": 2339,
      "`.\\": 2340,
      "neach": 2341,
      "gamma": 2342,
      "Ġpeople": 2343,
      "Ġupd": 2344,
      "Ġbal": 2345,
      "Ġque": 2346,
      "Ġmagn": 2347,
      "Ġmoving": 2348,
      "nex": 2349,
      "Ġcombinations": 2350,
      "Ġturn": 2351,
      "Ġwhether": 2352,
      "Ġsix": 2353,
      "Ġ\\\\,": 2354,
      "Ġsubt": 2355,
      "Ġinvolving": 2356,
      "Ġplug": 2357,
      "idth": 2358,
      "nthat": 2359,
      "ons": 2360,
      "Ġmay": 2361,
      "Ġmass": 2362,
      "wh": 2363,
      "Ġbreak": 2364,
      "Ġinst": 2365,
      "`,": 2366,
      "Ġgenerated": 2367,
      "Ġstatement": 2368,
      "ounter": 2369,
      "Ġstore": 2370,
      "nlooking": 2371,
      "Ġproperty": 2372,
      "ond": 2373,
      "29": 2374,
      "Ġworks": 2375,
      "Ġlevel": 2376,
      "ĠÏī": 2377,
      "Ġarrange": 2378,
      "Ġsphere": 2379,
      "Ġletter": 2380,
      "Ġ23": 2381,
      "Ġ99": 2382,
      "}\\\\)\\": 2383,
      "Ġexponents": 2384,
      "Ġpot": 2385,
      "ull": 2386,
      "Ġequilateral": 2387,
      "ming": 2388,
      "Ġlea": 2389,
      "Ġenough": 2390,
      "nl": 2391,
      "Ġeffect": 2392,
      "Ġtrick": 2393,
      "Ġchoices": 2394,
      "Ġcenters": 2395,
      "Ġblue": 2396,
      "Ġexplanation": 2397,
      "yz": 2398,
      "Ġcreate": 2399,
      "Ġour": 2400,
      "Ġvariables": 2401,
      "Ġflow": 2402,
      "ane": 2403,
      "aa": 2404,
      "ribed": 2405,
      "Ġintervals": 2406,
      "Ġseem": 2407,
      "Ġminus": 2408,
      "Ġinitialize": 2409,
      "Ġhex": 2410,
      "Ġmuch": 2411,
      "Ġinvalid": 2412,
      "etra": 2413,
      "Ġsimilarly": 2414,
      "Ġknown": 2415,
      "Ġelect": 2416,
      "35": 2417,
      "Ġfive": 2418,
      "gener": 2419,
      "ven": 2420,
      "Ġarrangement": 2421,
      "{-": 2422,
      "Ġcar": 2423,
      "gcd": 2424,
      "Ġexec": 2425,
      "Ġtetra": 2426,
      "imens": 2427,
      "Ġconsistent": 2428,
      "Ġes": 2429,
      "prime": 2430,
      "fty": 2431,
      "infty": 2432,
      "ithmetic": 2433,
      "ivale": 2434,
      "Ġcarefully": 2435,
      "ost": 2436,
      "Ġsounds": 2437,
      "Ġequivale": 2438,
      "Ġcoordinate": 2439,
      "Ġcut": 2440,
      "Ġ//": 2441,
      "nim": 2442,
      "area": 2443,
      "nafter": 2444,
      "pec": 2445,
      "Ġcombination": 2446,
      "=[": 2447,
      "Ġwater": 2448,
      "Ġbisector": 2449,
      "Ġassigned": 2450,
      "Ġdy": 2451,
      "Ġsimplifies": 2452,
      "xa": 2453,
      "ĢĤ": 2454,
      "clic": 2455,
      "Ġcontrad": 2456,
      "Ġcomponents": 2457,
      "sc": 2458,
      "Ġmaking": 2459,
      "Ġ49": 2460,
      "ded": 2461,
      "Ġunt": 2462,
      "inde": 2463,
      "Ġchoosing": 2464,
      "Ġfar": 2465,
      "bit": 2466,
      "radius": 2467,
      "nel": 2468,
      "ames": 2469,
      "position": 2470,
      "ics": 2471,
      "Ġmedi": 2472,
      "Ġarithmetic": 2473,
      "Ġdid": 2474,
      "Ġtwice": 2475,
      "Ġotherwise": 2476,
      "Ġbest": 2477,
      "Ġpermutations": 2478,
      "Ġcontin": 2479,
      "Ġspeed": 2480,
      "Ġexecut": 2481,
      "():\\": 2482,
      "Ġexceed": 2483,
      "Ġdiameter": 2484,
      "Ġinches": 2485,
      "Ġprecom": 2486,
      "asure": 2487,
      "Ġnone": 2488,
      "Ġnumerator": 2489,
      "Ġjo": 2490,
      "nk": 2491,
      "Ġappears": 2492,
      "Ġhad": 2493,
      "Ġshort": 2494,
      "Ġ26": 2495,
      "Ġuntil": 2496,
      "Ġaxis": 2497,
      "49": 2498,
      "nad": 2499,
      "alind": 2500,
      "alindrom": 2501,
      "ank": 2502,
      "total": 2503,
      "none": 2504,
      "ãĢĤ": 2505,
      "Ġsubsequence": 2506,
      "48": 2507,
      "nless": 2508,
      "Ġcomplete": 2509,
      "osen": 2510,
      "arter": 2511,
      "python": 2512,
      "Ġ=>": 2513,
      "Ġassuming": 2514,
      "Ġrelation": 2515,
      "triangle": 2516,
      "edge": 2517,
      "pendent": 2518,
      "Ġradi": 2519,
      "Ġ48": 2520,
      "Ġcalculated": 2521,
      "Ġtetrahedron": 2522,
      "Ġqueue": 2523,
      "Ġpotent": 2524,
      "nokay": 2525,
      "generate": 2526,
      "Ġadditional": 2527,
      "negative": 2528,
      "Ġapproximately": 2529,
      "Ġfeet": 2530,
      "Ġtogether": 2531,
      "Ġshif": 2532,
      "Ġtricky": 2533,
      "çļ": 2534,
      "çļĦ": 2535,
      "Ġcap": 2536,
      "Ġclass": 2537,
      "ren": 2538,
      "Ġexter": 2539,
      "Ġsymmetry": 2540,
      "Ġtem": 2541,
      "Ġintegr": 2542,
      "Ġtheory": 2543,
      "alse": 2544,
      "Ġhapp": 2545,
      "Ġperimeter": 2546,
      "Ġmultiples": 2547,
      "ãĢĤ\\": 2548,
      "76": 2549,
      "ĠÎ±": 2550,
      "Ġblock": 2551,
      "Ġpowers": 2552,
      "Ġfield": 2553,
      "Ġamount": 2554,
      "Ġdiagonals": 2555,
      "inter": 2556,
      "part": 2557,
      "Ġdecimal": 2558,
      "Ġmissing": 2559,
      "Ġsem": 2560,
      "Ġop": 2561,
      "1000": 2562,
      ",\"": 2563,
      "Ġregion": 2564,
      "nam": 2565,
      "Ġderiv": 2566,
      "Ġparent": 2567,
      "Ġroad": 2568,
      "Ġprompt": 2569,
      "Ġtakes": 2570,
      "ember": 2571,
      "Ġvis": 2572,
      "Ġoverlap": 2573,
      "dots": 2574,
      "Ġcomponent": 2575,
      "Ġfr": 2576,
      "Ġ__": 2577,
      "Ġzeros": 2578,
      "Ġchosen": 2579,
      "Ġchord": 2580,
      "Ġrepl": 2581,
      "Ġconstruct": 2582,
      "Ġclos": 2583,
      "Ġcontaining": 2584,
      "Ġho": 2585,
      "zer": 2586,
      "Ġcity": 2587,
      "uting": 2588,
      "Ġindependent": 2589,
      "Ġlimit": 2590,
      "enc": 2591,
      "Ġball": 2592,
      "Ġlight": 2593,
      "\":\\": 2594,
      "Ġ\\\\]": 2595,
      "Ġsubstring": 2596,
      "ired": 2597,
      "Ġexecutable": 2598,
      "Ġstack": 2599,
      "Ġunion": 2600,
      "Ġdistribut": 2601,
      "Ġquery": 2602,
      "Ġallows": 2603,
      "Ġseries": 2604,
      "$.\\": 2605,
      "col": 2606,
      "Ġsubarr": 2607,
      "Ġdue": 2608,
      "Ġslope": 2609,
      "Ġintersects": 2610,
      "Ġher": 2611,
      "let": 2612,
      "\\'.\\": 2613,
      "length": 2614,
      "Ġâī¥": 2615,
      "her": 2616,
      "xy": 2617,
      "ism": 2618,
      "\\\\]": 2619,
      "dp": 2620,
      "Ġwant": 2621,
      "Ġdivisor": 2622,
      "Ġmessy": 2623,
      "Ġ$$\\": 2624,
      "Ġequivalent": 2625,
      "ier": 2626,
      "Ġmatching": 2627,
      ")--": 2628,
      "Ġcovered": 2629,
      "overline": 2630,
      "istance": 2631,
      "nact": 2632,
      "nfin": 2633,
      "44": 2634,
      "Ġtable": 2635,
      "Ġ\\\\{": 2636,
      ")|": 2637,
      "Ġmeasure": 2638,
      "icks": 2639,
      "gs": 2640,
      "Ġeas": 2641,
      "_{\\\\": 2642,
      "als": 2643,
      "Ġpalindrom": 2644,
      "Ġproblems": 2645,
      "Ġdetermined": 2646,
      "Ġstrate": 2647,
      "Ġhighest": 2648,
      "nset": 2649,
      "index": 2650,
      "26": 2651,
      "rm": 2652,
      "nag": 2653,
      "Ġunless": 2654,
      "Ġincrease": 2655,
      "88": 2656,
      "example": 2657,
      "ci": 2658,
      "Ġupper": 2659,
      "ators": 2660,
      "Ġlabe": 2661,
      "fe": 2662,
      "Ġkey": 2663,
      ")\\\\).\\": 2664,
      "ages": 2665,
      "Ġmaint": 2666,
      "itude": 2667,
      "sity": 2668,
      "Ġgenerating": 2669,
      "Ġgoal": 2670,
      "'(": 2671,
      "}\\\\]\\": 2672,
      "ken": 2673,
      "Ġoutside": 2674,
      "Ġai": 2675,
      "Ġleads": 2676,
      "Ġconcept": 2677,
      "nagain": 2678,
      "Ġhexagon": 2679,
      "Ġacceptable": 2680,
      "ram": 2681,
      "Ġcounter": 2682,
      "Ġwidth": 2683,
      "Ġlooking": 2684,
      "ling": 2685,
      "Ġrate": 2686,
      "Ġcubes": 2687,
      "Ġsuppose": 2688,
      "Ġconsidered": 2689,
      "Ġsurf": 2690,
      "Ġneighbors": 2691,
      "plied": 2692,
      "}\\\\).": 2693,
      "Ġresults": 2694,
      "nactually": 2695,
      "Ġones": 2696,
      "Ġcalculations": 2697,
      "Ġrotation": 2698,
      "Ġinformation": 2699,
      "Ġprovided": 2700,
      "Ġ22": 2701,
      "Ġbeh": 2702,
      "'re": 2703,
      "Ġstudent": 2704,
      "]:\\": 2705,
      "Ġgeometric": 2706,
      "nstart": 2707,
      "Ġexpressions": 2708,
      "ked": 2709,
      "Ġdimens": 2710,
      "day": 2711,
      "Ġ80": 2712,
      "idd": 2713,
      "Ġcollect": 2714,
      "gru": 2715,
      "nce": 2716,
      "Ġnet": 2717,
      "Ġmaintain": 2718,
      "Ġ35": 2719,
      "|>'}]}": 2720,
      "Ġorth": 2721,
      "Ġplaced": 2722,
      "nr": 2723,
      "Ġhelpful": 2724,
      "Ġâīł": 2725,
      "Ġblocks": 2726,
      "Ġexpected": 2727,
      "assum": 2728,
      "center": 2729,
      "Ġtan": 2730,
      "Ġcompare": 2731,
      "Ġha": 2732,
      "Ġcontext": 2733,
      "Ġitself": 2734,
      "Ġbeen": 2735,
      "Ġ\\\\\\\\\\": 2736,
      "imized": 2737,
      "Ġensuring": 2738,
      "Ġproducts": 2739,
      "medi": 2740,
      "Ġstre": 2741,
      "Ġprogramming": 2742,
      "roid": 2743,
      "Ġconfiguration": 2744,
      "Ġrecurs": 2745,
      "Ġ($": 2746,
      "coordin": 2747,
      "Ġratios": 2748,
      "\\'\\": 2749,
      "34": 2750,
      "Ġmatter": 2751,
      "time": 2752,
      "Ġincorrect": 2753,
      "Ġvisited": 2754,
      "ya": 2755,
      "|^": 2756,
      "sents": 2757,
      "zero": 2758,
      "ash": 2759,
      "Ġ360": 2760,
      "Ġprobably": 2761,
      "non": 2762,
      "ell": 2763,
      "olute": 2764,
      "Ġ29": 2765,
      "Ġchecking": 2766,
      "Ġoverlapping": 2767,
      "Ġfeas": 2768,
      "cular": 2769,
      "Ġalt": 2770,
      "$\\\\": 2771,
      "Ġlcm": 2772,
      "Ġplayers": 2773,
      "uction": 2774,
      "Ġcongru": 2775,
      "Ġhours": 2776,
      "cent": 2777,
      "nwhere": 2778,
      "96": 2779,
      "Ġmanage": 2780,
      "Ġrelative": 2781,
      "Ġacross": 2782,
      "Ġpasses": 2783,
      "Ġcoefficient": 2784,
      "perature": 2785,
      "Ġgenerate": 2786,
      "ended": 2787,
      "Ġrepresents": 2788,
      "Ġfalse": 2789,
      "Ġ)": 2790,
      "Ġpos": 2791,
      "Ġexcept": 2792,
      "mathbb": 2793,
      "Ġgreen": 2794,
      "Ġoptimal": 2795,
      "Ġchildren": 2796,
      "Ġabsolute": 2797,
      "Ġexternal": 2798,
      "Ġothers": 2799,
      "anced": 2800,
      "Ġthings": 2801,
      "Ġwrit": 2802,
      "56": 2803,
      "Ġboo": 2804,
      "wn": 2805,
      "Ġdivision": 2806,
      "Ġlogic": 2807,
      "Ġpolynomials": 2808,
      "Ġidentity": 2809,
      "Ġsurface": 2810,
      "Ġid": 2811,
      "where": 2812,
      "aling": 2813,
      "Ġswap": 2814,
      "ninitial": 2815,
      "Ġgoes": 2816,
      "Ġrearr": 2817,
      "gress": 2818,
      "Ġest": 2819,
      "ional": 2820,
      "Ġmole": 2821,
      "Ġupdate": 2822,
      "Ġexclu": 2823,
      "Ġlooks": 2824,
      "anging": 2825,
      "Ġ[]\\": 2826,
      "Ġsmarter": 2827,
      "Ġdecreasing": 2828,
      "Ġcur": 2829,
      "ilities": 2830,
      "Ġgen": 2831,
      "Ġtransform": 2832,
      "Ġcentroid": 2833,
      "nit": 2834,
      "urns": 2835,
      "mathrm": 2836,
      "ses": 2837,
      "77": 2838,
      "Ġexamples": 2839,
      "Ġprecompute": 2840,
      "nhere": 2841,
      "42": 2842,
      "Ġtemperature": 2843,
      "Ġseconds": 2844,
      ")*(": 2845,
      "Ġdisc": 2846,
      "Ġends": 2847,
      "^{\\\\": 2848,
      "Ġconvert": 2849,
      "nu": 2850,
      "Ġcoins": 2851,
      "tc": 2852,
      "tr": 2853,
      "Ġtask": 2854,
      "Ġreaction": 2855,
      "npl": 2856,
      "oll": 2857,
      "Ġcandid": 2858,
      "Ġsimple": 2859,
      "prefix": 2860,
      "Ġ\"__": 2861,
      ".\"\\": 2862,
      "Ġfinite": 2863,
      "Ġremoving": 2864,
      "Ġstrategy": 2865,
      "Ġvery": 2866,
      "__\":\\": 2867,
      "Ġ31": 2868,
      "way": 2869,
      "nfinally": 2870,
      "number": 2871,
      "Ġcontribut": 2872,
      "Ġensures": 2873,
      "Ġfeasible": 2874,
      "nsecond": 2875,
      "Ġfine": 2876,
      "Ġapproaches": 2877,
      "nelse": 2878,
      "jo": 2879,
      "Ġcyclic": 2880,
      "Ġquant": 2881,
      "wards": 2882,
      "ceil": 2883,
      "Ġjum": 2884,
      "Ġdepending": 2885,
      "sub": 2886,
      "Ġtypes": 2887,
      "sh": 2888,
      "Ġbi": 2889,
      "Ġxy": 2890,
      "Ġ42": 2891,
      "Ġrelationships": 2892,
      "Ġpick": 2893,
      "nseems": 2894,
      "\\':": 2895,
      "Ġprogress": 2896,
      "Ġasking": 2897,
      "att": 2898,
      "Ġshortest": 2899,
      "37": 2900,
      "Ġflip": 2901,
      "ples": 2902,
      "ĠâĢĶ": 2903,
      "ural": 2904,
      "hehehehehehehehe": 2905,
      "Ġ_": 2906,
      "ulate": 2907,
      "ulative": 2908,
      "hand": 2909,
      "Ġavoid": 2910,
      "31": 2911,
      "Ġetc": 2912,
      "Ġregions": 2913,
      "...\\": 2914,
      "lu": 2915,
      "])": 2916,
      "ulation": 2917,
      "].": 2918,
      "Ġidentify": 2919,
      "op": 2920,
      "Ġconsists": 2921,
      "Ġ:": 2922,
      "used": 2923,
      "encies": 2924,
      "deg": 2925,
      "Ġproject": 2926,
      "Ġflo": 2927,
      "Ġgoing": 2928,
      "Ġremains": 2929,
      "nnot": 2930,
      "nedge": 2931,
      "Ġpieces": 2932,
      "Ġhowever": 2933,
      "Ġadv": 2934,
      "Ġdividing": 2935,
      "yond": 2936,
      ")--(": 2937,
      "Ġaltern": 2938,
      "ored": 2939,
      "Ġbeyond": 2940,
      "Ġloop": 2941,
      "Ġlaw": 2942,
      "Ġem": 2943,
      "dfrac": 2944,
      "ivity": 2945,
      "prod": 2946,
      "70": 2947,
      "\")\\": 2948,
      "Ġsufficient": 2949,
      "linear": 2950,
      "ty": 2951,
      "Ġtra": 2952,
      "olog": 2953,
      "graph": 2954,
      "sort": 2955,
      "Ġmeet": 2956,
      "\\\\):": 2957,
      "ands": 2958,
      "ninitialize": 2959,
      "Ġsymmetric": 2960,
      "Ġproport": 2961,
      "=-": 2962,
      "Ġwants": 2963,
      "Ġhaving": 2964,
      "Ġ$(": 2965,
      "izes": 2966,
      "Ġmedian": 2967,
      "Ġdx": 2968,
      "55": 2969,
      "cu": 2970,
      "Ġprice": 2971,
      "ead": 2972,
      "nusing": 2973,
      "110": 2974,
      "Ġ500": 2975,
      "gonometr": 2976,
      "Ġdirections": 2977,
      "Ġcentral": 2978,
      "Ġelimin": 2979,
      "Ġcoprime": 2980,
      "Ġinvers": 2981,
      "Ġwal": 2982,
      ".\"": 2983,
      "ĠÃ·": 2984,
      "examples": 2985,
      "ncheck": 2986,
      "ultiply": 2987,
      "div": 2988,
      "onger": 2989,
      "Ġstrict": 2990,
      "Ġobt": 2991,
      "Ġgrow": 2992,
      "ante": 2993,
      "ola": 2994,
      "Ġincluding": 2995,
      "Ġconnecting": 2996,
      "Ġtrigonometr": 2997,
      "nsubstit": 2998,
      "'ll": 2999,
      "Ġbuy": 3000,
      "Ġparticular": 3001,
      "Ġpaint": 3002,
      "arante": 3003,
      "åı": 3004,
      "Ġmer": 3005,
      "map": 3006,
      "}^{\\\\": 3007,
      "ansit": 3008,
      "Ġrad": 3009,
      "Ġguarante": 3010,
      "under": 3011,
      "bine": 3012,
      "ark": 3013,
      "\\\\}": 3014,
      "Ġnat": 3015,
      "Ġpq": 3016,
      "\\\\(\\\\": 3017,
      "Ġfit": 3018,
      "Ġsubstrings": 3019,
      "nat": 3020,
      "Ġcrit": 3021,
      "84": 3022,
      "(\\'": 3023,
      "ĠÎ³": 3024,
      "Ġbob": 3025,
      "ia": 3026,
      "01": 3027,
      "Ġbalance": 3028,
      "start": 3029,
      "Ġfourth": 3030,
      "125": 3031,
      "()": 3032,
      "Ġrepresentation": 3033,
      "Ġinternal": 3034,
      "ffix": 3035,
      "Ġroll": 3036,
      ".<|": 3037,
      "Ġtrying": 3038,
      "Ġheights": 3039,
      "Ġcomplexity": 3040,
      "Ġdiction": 3041,
      "Ġinf": 3042,
      "Ġyear": 3043,
      "Ġexpand": 3044,
      "Ġdynam": 3045,
      "Ġpack": 3046,
      "uc": 3047,
      "Ġpotential": 3048,
      "Ġgra": 3049,
      "Ġsch": 3050,
      "Ġpress": 3051,
      "Ġrectangles": 3052,
      "Ġfreq": 3053,
      "pping": 3054,
      ")]\\": 3055,
      "ins": 3056,
      "})^": 3057,
      "Ġneighbor": 3058,
      "æĪ": 3059,
      "Ġtangents": 3060,
      "999": 3061,
      "}{(": 3062,
      "Ġtouch": 3063,
      "Ġshad": 3064,
      "89": 3065,
      "Ġwere": 3066,
      "bec": 3067,
      "Ġ144": 3068,
      "Ġincludes": 3069,
      "idx": 3070,
      "py": 3071,
      "Ġabcd": 3072,
      "Ġindic": 3073,
      "Ġdu": 3074,
      "ncon": 3075,
      "ä»": 3076,
      "Ġgreat": 3077,
      "ĠÏĨ": 3078,
      "nassum": 3079,
      ");\\": 3080,
      "urther": 3081,
      "Ġcorrespond": 3082,
      "Ġwhose": 3083,
      "ĠÎ´": 3084,
      "Ġenc": 3085,
      "Ġarrangements": 3086,
      ".'}]}": 3087,
      "Ġinterest": 3088,
      "find": 3089,
      "Ġrest": 3090,
      "omb": 3091,
      "Ġachieve": 3092,
      "Ġspecifically": 3093,
      "Ġdimensions": 3094,
      "Ġbelow": 3095,
      "Ġtransit": 3096,
      "Ġduring": 3097,
      "Ġ37": 3098,
      "Ġsorting": 3099,
      "Ġ70": 3100,
      "delta": 3101,
      ")!": 3102,
      "Ġmiles": 3103,
      "ncompute": 3104,
      "Ġselected": 3105,
      "Ġtaking": 3106,
      "Ġmanageable": 3107,
      "Ġef": 3108,
      "Ġlikely": 3109,
      "Ġunderstanding": 3110,
      "red": 3111,
      "Ġfriends": 3112,
      "pecially": 3113,
      "ouse": 3114,
      "Ġ34": 3115,
      "Ġespecially": 3116,
      "because": 3117,
      "ian": 3118,
      "Ġcentered": 3119,
      "Ġending": 3120,
      "idden": 3121,
      "Ġinsc": 3122,
      "Ġinverse": 3123,
      "Ġ\\\\(-": 3124,
      "Ġradical": 3125,
      "Ġfull": 3126,
      "Ġpiece": 3127,
      "Ġnote": 3128,
      "Ġgets": 3129,
      "Ġinputs": 3130,
      "Ġalice": 3131,
      "calculate": 3132,
      "Ġstrictly": 3133,
      "Ġcounting": 3134,
      "Ġbro": 3135,
      "npossible": 3136,
      "Ġsignific": 3137,
      "Ġlists": 3138,
      "Ġelectron": 3139,
      "Ġ400": 3140,
      "ĠâĪļ(": 3141,
      "Ġaccount": 3142,
      "ematic": 3143,
      "Ġsatisfied": 3144,
      "Ġmultiplic": 3145,
      "Ġnatural": 3146,
      "Ġforms": 3147,
      "Ġspher": 3148,
      "Ġheap": 3149,
      "âĪ": 3150,
      "Ġell": 3151,
      "Ġconj": 3152,
      "rr": 3153,
      "nthes": 3154,
      "Ġinteract": 3155,
      "52": 3156,
      "Ġcircumcenter": 3157,
      "Ġtrigonometric": 3158,
      "Ġlit": 3159,
      "Ġparity": 3160,
      "ized": 3161,
      "Ġclose": 3162,
      "Ġswaps": 3163,
      "Ġsetting": 3164,
      "Ġ300": 3165,
      "Ġdr": 3166,
      "Ġbfs": 3167,
      "Ġimmedi": 3168,
      "oper": 3169,
      "Ġassumption": 3170,
      "Ġpalindrome": 3171,
      "Ġinsert": 3172,
      "}_": 3173,
      "ones": 3174,
      "())\\": 3175,
      "current": 3176,
      "valu": 3177,
      "atch": 3178,
      "Ġbits": 3179,
      "Ġinstead": 3180,
      "Ġ\\\\(|": 3181,
      "order": 3182,
      "Ġoverall": 3183,
      "angular": 3184,
      "Ġellip": 3185,
      "uous": 3186,
      "Ġspecial": 3187,
      "Ġskip": 3188,
      "Ġdictionary": 3189,
      "Ġeasier": 3190,
      "âĢĶ": 3191,
      "Ġdfs": 3192,
      "Ġrelates": 3193,
      "Ġobser": 3194,
      "Ġfast": 3195,
      "72": 3196,
      "nimport": 3197,
      "Ġconjug": 3198,
      "less": 3199,
      "Ġ81": 3200,
      "Ġassignment": 3201,
      "Ġ33": 3202,
      "ncalcul": 3203,
      "word": 3204,
      "rip": 3205,
      ")$": 3206,
      "Ġhence": 3207,
      "Ġanalyz": 3208,
      "entr": 3209,
      "Ġcities": 3210,
      "Ġoptimize": 3211,
      "ĠĠĠĠĠĠĠĠ": 3212,
      "most": 3213,
      "Ġpy": 3214,
      "Ġpop": 3215,
      "apez": 3216,
      "Ġsignificant": 3217,
      "Ġgrav": 3218,
      "Ġplugging": 3219,
      "Ġintegral": 3220,
      "apezoid": 3221,
      "arithm": 3222,
      "mis": 3223,
      "Ġoct": 3224,
      "enari": 3225,
      "Ġbisectors": 3226,
      "Ġment": 3227,
      "Ġfollowed": 3228,
      "alize": 3229,
      "=(": 3230,
      "Ġsupp": 3231,
      "Ġlongest": 3232,
      "bles": 3233,
      "Ġweights": 3234,
      "Ġmathematic": 3235,
      "Ġfractions": 3236,
      "}}{\\\\": 3237,
      "Ġtrapezoid": 3238,
      "Ġdone": 3239,
      "nno": 3240,
      "icts": 3241,
      "Ġfurther": 3242,
      "ndp": 3243,
      "Ġcovers": 3244,
      "Ġcosts": 3245,
      "ä½": 3246,
      "ference": 3247,
      "ibility": 3248,
      "Ġfoc": 3249,
      "Ġinclusion": 3250,
      "oes": 3251,
      "Ġlogarithm": 3252,
      "Ġ72": 3253,
      "Ġpassing": 3254,
      "nrow": 3255,
      "step": 3256,
      "ho": 3257,
      "]{": 3258,
      "Ġwon": 3259,
      "imizes": 3260,
      "Ġspaces": 3261,
      "]:": 3262,
      "Ġtrees": 3263,
      "Ġlay": 3264,
      "npro": 3265,
      "degree": 3266,
      "Ġquite": 3267,
      "Ġsizes": 3268,
      "Ġcongruent": 3269,
      "Ġbehav": 3270,
      "Ġparticip": 3271,
      "otes": 3272,
      "Ġincluded": 3273,
      "Ġradii": 3274,
      "Ġyet": 3275,
      "Ġsimpler": 3276,
      "abl": 3277,
      "Ġresid": 3278,
      "Ġinscribed": 3279,
      "Ġiss": 3280,
      "Ġbuilding": 3281,
      "Ġevent": 3282,
      "Ġappear": 3283,
      "85": 3284,
      "Ġrepresented": 3285,
      "standing": 3286,
      "Ġdepends": 3287,
      "Ġconclu": 3288,
      "celes": 3289,
      "osceles": 3290,
      "Ġconstraint": 3291,
      "ĠÂ±": 3292,
      "Ġ75": 3293,
      "Ġnorm": 3294,
      "Ġsur": 3295,
      "Ġorthoc": 3296,
      "Ġseparately": 3297,
      "Ġchoice": 3298,
      "Ġmeters": 3299,
      "Ġpi": 3300,
      "Ġrand": 3301,
      "ĠÂ·": 3302,
      "nplug": 3303,
      "Ġboard": 3304,
      "Ġ44": 3305,
      "cal": 3306,
      "Ġleaves": 3307,
      "))^": 3308,
      "like": 3309,
      "Ġplanes": 3310,
      "cending": 3311,
      "åĪ": 3312,
      "len": 3313,
      "Ġscenari": 3314,
      "Ġsubstitute": 3315,
      "Ġpur": 3316,
      "Ġ199": 3317,
      "imizing": 3318,
      "Ġinequalities": 3319,
      "ivid": 3320,
      "æĺ": 3321,
      "}.": 3322,
      "ush": 3323,
      "^{(": 3324,
      "Ġ[(": 3325,
      "Ġcircumradius": 3326,
      "list": 3327,
      "Ġae": 3328,
      "Ġrandom": 3329,
      "je": 3330,
      "81": 3331,
      "Ġisosceles": 3332,
      "Ġuseful": 3333,
      "Ġselecting": 3334,
      "Ġwritten": 3335,
      "Ġasy": 3336,
      "Ġellipse": 3337,
      "Ġcollinear": 3338,
      "ribute": 3339,
      "Ġpartition": 3340,
      "Ġintersections": 3341,
      "Ġsuffix": 3342,
      "alled": 3343,
      "Ġspecies": 3344,
      "Ġadded": 3345,
      "Ġcapac": 3346,
      "airs": 3347,
      "Ġindivid": 3348,
      "pth": 3349,
      "}$$\\": 3350,
      "Ġduplic": 3351,
      "Ġtrave": 3352,
      "Ġrestr": 3353,
      "65": 3354,
      "Ġname": 3355,
      "ident": 3356,
      "ndiv": 3357,
      "empty": 3358,
      "nmultiply": 3359,
      "Ġsig": 3360,
      "Ġmidpoints": 3361,
      "Ġremoved": 3362,
      "itially": 3363,
      "Ġonto": 3364,
      "Ġcircular": 3365,
      "Ġincrement": 3366,
      "Ġidentities": 3367,
      "Ġorthocenter": 3368,
      "Ġimplementation": 3369,
      "bitr": 3370,
      "Ġrece": 3371,
      "Ð¾": 3372,
      "Ġarbitr": 3373,
      "Î±": 3374,
      "Ġmem": 3375,
      "Ġsemic": 3376,
      "$-": 3377,
      "Ġinfinitely": 3378,
      "jection": 3379,
      "exclusion": 3380,
      "Ġdomin": 3381,
      "Ġ\\\\)**:\\": 3382,
      "Ġswit": 3383,
      "cost": 3384,
      "Ġboxes": 3385,
      "Ġopen": 3386,
      "me": 3387,
      "Ġlonger": 3388,
      "ries": 3389,
      "Ġparab": 3390,
      "Ġarcs": 3391,
      "^-": 3392,
      "Ġsubarray": 3393,
      "->": 3394,
      "ba": 3395,
      "Ġassignments": 3396,
      "è¿": 3397,
      "understanding": 3398,
      "Ġdistribution": 3399,
      "Ġown": 3400,
      "Ġruns": 3401,
      "ision": 3402,
      "Ġaffects": 3403,
      "Ġprin": 3404,
      "67": 3405,
      "gen": 3406,
      "120": 3407,
      "tracting": 3408,
      "Ġdesired": 3409,
      "pand": 3410,
      "urrence": 3411,
      "Ġapplic": 3412,
      "Ġincenter": 3413,
      "Ġimply": 3414,
      "39": 3415,
      "Ġsubtree": 3416,
      "Ġbehavior": 3417,
      "ness": 3418,
      "aten": 3419,
      "Ġproportional": 3420,
      "Ġasympt": 3421,
      "Ġadvanced": 3422,
      "nstarting": 3423,
      "Ġformalize": 3424,
      "ircle": 3425,
      "Ġascending": 3426,
      "Ġinterpre": 3427,
      "Ġsolving": 3428,
      "Ġassigning": 3429,
      "dle": 3430,
      "nj": 3431,
      "Ġreflect": 3432,
      "ners": 3433,
      "Ġpract": 3434,
      "cycle": 3435,
      "ained": 3436,
      "Ġarri": 3437,
      "Ġconclude": 3438,
      "nreturn": 3439,
      "var": 3440,
      "finding": 3441,
      "Ġtransformation": 3442,
      "ĠÎ²": 3443,
      "avor": 3444,
      "Ġpol": 3445,
      "based": 3446,
      "æĺ¯": 3447,
      "Ġant": 3448,
      "Ġdealing": 3449,
      "Ġordered": 3450,
      "Ġfree": 3451,
      "iving": 3452,
      "nas": 3453,
      "Ġcritical": 3454,
      "Ġyears": 3455,
      "nmore": 3456,
      "sl": 3457,
      "Ġidx": 3458,
      "odd": 3459,
      "ntake": 3460,
      "Ġmiddle": 3461,
      "positions": 3462,
      "ront": 3463,
      "Ġcalculating": 3464,
      "Ġgames": 3465,
      "$'},": 3466,
      "Ġknowing": 3467,
      "Ġrecip": 3468,
      "Ġgreatest": 3469,
      "nwhat": 3470,
      "br": 3471,
      "Ġarranged": 3472,
      "icult": 3473,
      "nor": 3474,
      "pot": 3475,
      "Ġnine": 3476,
      "Ġreverse": 3477,
      "nsort": 3478,
      "Ġreduce": 3479,
      "Ġconcentr": 3480,
      "Ġfactorial": 3481,
      "uce": 3482,
      "fficiency": 3483,
      "cel": 3484,
      "Ġcubic": 3485,
      "Ġcum": 3486,
      "Ġcalled": 3487,
      "Ġextra": 3488,
      "ckwise": 3489,
      "Ġderivative": 3490,
      "Ġcorner": 3491,
      "Ġyield": 3492,
      "Ġreplac": 3493,
      "chan": 3494,
      "creasing": 3495,
      "clusive": 3496,
      "Ġestabl": 3497,
      ")\\\\)\\": 3498,
      "Ġinfinity": 3499,
      ")\\\\": 3500,
      "Ġshaded": 3501,
      "lection": 3502,
      "Ġremember": 3503,
      "Ġdoll": 3504,
      "Ġdynamic": 3505,
      "nch": 3506,
      "Ġprote": 3507,
      "Ġsquared": 3508,
      "Ġbac": 3509,
      "Ġballs": 3510,
      "mid": 3511,
      "mol": 3512,
      "Ġtu": 3513,
      "nbecause": 3514,
      "Ġsect": 3515,
      "aut": 3516,
      "\".": 3517,
      "arry": 3518,
      "Ġviol": 3519,
      "Ġcoloring": 3520,
      "Ġpent": 3521,
      "Ġsemicircle": 3522,
      "Ġ2000": 3523,
      "Ġdensity": 3524,
      "ĠâĪ©": 3525,
      "itudes": 3526,
      "nmoreover": 3527,
      "ok": 3528,
      "Ġranges": 3529,
      "Ġsatisfying": 3530,
      "Ġ999": 3531,
      "Ġrepeated": 3532,
      "ef": 3533,
      "Ġokay": 3534,
      "Ġcone": 3535,
      "Ġqueries": 3536,
      "Ġpri": 3537,
      "Ġ101": 3538,
      "sion": 3539,
      "Ġmechan": 3540,
      "Ġbar": 3541,
      "Ġinterior": 3542,
      "wor": 3543,
      "69": 3544,
      "nv": 3545,
      "pri": 3546,
      "attice": 3547,
      "Ġitems": 3548,
      "ability": 3549,
      "nmax": 3550,
      "seg": 3551,
      "alth": 3552,
      "Ġasks": 3553,
      "Ġ39": 3554,
      "nnumber": 3555,
      "which": 3556,
      "ĠÐ": 3557,
      "Ġnor": 3558,
      ")-": 3559,
      "Ġtech": 3560,
      "lin": 3561,
      "åĲ": 3562,
      "Ġbinomial": 3563,
      "nexpand": 3564,
      "Ġshape": 3565,
      "Ġtre": 3566,
      "Ġhom": 3567,
      "Ġfront": 3568,
      "Ġshift": 3569,
      "Ġimmediately": 3570,
      "Ġdecreases": 3571,
      "ton": 3572,
      "even": 3573,
      "dif": 3574,
      "101": 3575,
      "Ġrank": 3576,
      "Ġlattice": 3577,
      "Ġdescending": 3578,
      "Ġra": 3579,
      "Ġaxes": 3580,
      "Ġlevels": 3581,
      "Ġreading": 3582,
      "arm": 3583,
      "Ġdel": 3584,
      "Ġbig": 3585,
      "Ġdidn": 3586,
      "Ġrevers": 3587,
      "Ġ-=": 3588,
      ");": 3589,
      "Â°,": 3590,
      "istic": 3591,
      "Ġroads": 3592,
      "nstep": 3593,
      "varphi": 3594,
      "uler": 3595,
      "199": 3596,
      "ramid": 3597,
      "bidden": 3598,
      "Ġevalu": 3599,
      "Ġvisual": 3600,
      "Ġevents": 3601,
      "Ġdifficult": 3602,
      "Ġphot": 3603,
      "Ġclosest": 3604,
      "38": 3605,
      "ca": 3606,
      "Ġmark": 3607,
      "Ġcomputing": 3608,
      "ads": 3609,
      "Ġmagnetic": 3610,
      "Ġfrequencies": 3611,
      "cot": 3612,
      "Ġda": 3613,
      "comes": 3614,
      "Ġcontradiction": 3615,
      "coordinate": 3616,
      "Ġjump": 3617,
      "180": 3618,
      "osed": 3619,
      "Ġpyramid": 3620,
      "actor": 3621,
      "Ġalpha": 3622,
      "}}\\": 3623,
      "Ġ150": 3624,
      "åı¯": 3625,
      "Ġanalyze": 3626,
      "Ġplaces": 3627,
      "Ġentirely": 3628,
      "Ġ56": 3629,
      "Ġattack": 3630,
      "Ġatom": 3631,
      "Ġseparate": 3632,
      "Ġkm": 3633,
      "Ġactual": 3634,
      "Ġwall": 3635,
      "Ġlo": 3636,
      "Ġcoinc": 3637,
      "Ġpossibly": 3638,
      "Ġself": 3639,
      "Ġfew": 3640,
      "wr": 3641,
      "overrightarrow": 3642,
      "Ġbas": 3643,
      "Ġexpans": 3644,
      "äº": 3645,
      "Ġchecks": 3646,
      "Ġresulting": 3647,
      "Ġprojection": 3648,
      "Ġboundary": 3649,
      "Ġinflu": 3650,
      "Ġiterating": 3651,
      "Ġmolecu": 3652,
      "alleng": 3653,
      "Ġguaranteed": 3654,
      "Ġpentagon": 3655,
      "Ġmethods": 3656,
      "?'},": 3657,
      "ains": 3658,
      "Ġaltitude": 3659,
      "Ġ125": 3660,
      "vir": 3661,
      "sed": 3662,
      "Ġoutcomes": 3663,
      "Ġcapacity": 3664,
      "âī": 3665,
      "Ġfactorization": 3666,
      "Ġappropri": 3667,
      "Ġmultiplying": 3668,
      "Ġfill": 3669,
      "Ġchalleng": 3670,
      "Ġrecipro": 3671,
      "\\':\\": 3672,
      "Ġmaps": 3673,
      "Ġidentical": 3674,
      "xi": 3675,
      "57": 3676,
      "Ġconver": 3677,
      "Ġdepth": 3678,
      "operator": 3679,
      "Ġsumming": 3680,
      "[(": 3681,
      "Ġsolid": 3682,
      "Ġmovement": 3683,
      "Ġbounded": 3684,
      "Ġtangency": 3685,
      "angled": 3686,
      "Ġerror": 3687,
      "Ġconfusing": 3688,
      "Ġmater": 3689,
      "Ġtack": 3690,
      "Ġhouse": 3691,
      "Ġmaterial": 3692,
      "Ġturns": 3693,
      "Ġrepresenting": 3694,
      "ndefine": 3695,
      "rimin": 3696,
      "Ġdc": 3697,
      "Ġ]": 3698,
      "Ġtackle": 3699,
      "Ġdark": 3700,
      "vi": 3701,
      "Ġadjacency": 3702,
      "Ġcandidate": 3703,
      "Ġforbidden": 3704,
      "Ġasked": 3705,
      "ä¸ª": 3706,
      "Ġfavor": 3707,
      "nassuming": 3708,
      "Ġrules": 3709,
      "cap": 3710,
      "Ġefficiency": 3711,
      "mb": 3712,
      "Ġkeeping": 3713,
      "poten": 3714,
      "|\\": 3715,
      "Ġmaximal": 3716,
      "Ġconfused": 3717,
      "Ġ((": 3718,
      "Ġshows": 3719,
      "operatorname": 3720,
      "Ġsuper": 3721,
      "//": 3722,
      "Ġsubsequences": 3723,
      "old": 3724,
      "Ġsafe": 3725,
      "Ġ54": 3726,
      "Ġsubstituting": 3727,
      "viron": 3728,
      "Ġfall": 3729,
      "Ġobject": 3730,
      "Ġmir": 3731,
      "Ġprogression": 3732,
      "ob": 3733,
      "Ġdete": 3734,
      "Ġeliminate": 3735,
      "asks": 3736,
      "Ġconnections": 3737,
      "è®": 3738,
      "Ġeuler": 3739,
      "Ġquantum": 3740,
      "riminant": 3741,
      "Ġconjugate": 3742,
      "Ġpercent": 3743,
      "Ġrearrange": 3744,
      "nac": 3745,
      "Ġ(âĪļ": 3746,
      "new": 3747,
      "dy": 3748,
      "Ġvisualize": 3749,
      "kens": 3750,
      "Ġparabola": 3751,
      "potenuse": 3752,
      "Ðµ": 3753,
      "Ġfli": 3754,
      "Ġdele": 3755,
      "Ġ96": 3756,
      "Ġmonth": 3757,
      "Ġfil": 3758,
      "111": 3759,
      "æľ": 3760,
      "Ġhealth": 3761,
      "nsubstituting": 3762,
      "Ġprinci": 3763,
      "bra": 3764,
      "Ġcombine": 3765,
      "Ġimage": 3766,
      "Ġconsisting": 3767,
      "625": 3768,
      "lls": 3769,
      "Ġintersecting": 3770,
      "note": 3771,
      "raph": 3772,
      "sig": 3773,
      "}|": 3774,
      "Ġneg": 3775,
      "Ġenviron": 3776,
      "Ġinitially": 3777,
      "els": 3778,
      "ud": 3779,
      "Ġneither": 3780,
      "Ġtransl": 3781,
      "Ġclosed": 3782,
      "Ġimplementing": 3783,
      "edy": 3784,
      "Ġbases": 3785,
      "arest": 3786,
      "ological": 3787,
      "500": 3788,
      "^(": 3789,
      "Ġcoll": 3790,
      "Ġmultiplied": 3791,
      "Ġlegs": 3792,
      "Ġrotations": 3793,
      "ipart": 3794,
      "Ġgravit": 3795,
      "with": 3796,
      "ncurrent": 3797,
      "Ġwhole": 3798,
      "root": 3799,
      "Ġrese": 3800,
      "rol": 3801,
      "distance": 3802,
      "ient": 3803,
      "*(-": 3804,
      "Ġasymptote": 3805,
      "ah": 3806,
      "stra": 3807,
      "Ġbecome": 3808,
      "Ġtaken": 3809,
      "Ġtravers": 3810,
      "Ġseen": 3811,
      "Ġgiving": 3812,
      "ncount": 3813,
      "Ġequality": 3814,
      "Ġrecursive": 3815,
      "Ġdecrease": 3816,
      "[-": 3817,
      "first": 3818,
      "Ġ.": 3819,
      "Ġsour": 3820,
      "Ġhypotenuse": 3821,
      "Ġdescri": 3822,
      "Ġscale": 3823,
      "Ġpb": 3824,
      "Ġpile": 3825,
      "Ġbus": 3826,
      "))/": 3827,
      "oot": 3828,
      "Ġexpansion": 3829,
      "Ġregard": 3830,
      "Ġconfigurations": 3831,
      "olving": 3832,
      "Ġwrong": 3833,
      "Ġhole": 3834,
      "Ġrepeating": 3835,
      "Ġreplace": 3836,
      "144": 3837,
      "logram": 3838,
      "Ġoccurs": 3839,
      "Ġcompar": 3840,
      "Ġcombined": 3841,
      "nplugging": 3842,
      "Ġdot": 3843,
      "gebra": 3844,
      "abe": 3845,
      "Ġgraphs": 3846,
      "Ġcents": 3847,
      "Ġvow": 3848,
      "Ġplacing": 3849,
      "Ġaway": 3850,
      "Ġnearest": 3851,
      "\\',\\'": 3852,
      "akes": 3853,
      "Ġsong": 3854,
      "Ġprior": 3855,
      "ÃĹ": 3856,
      "Ġgravitational": 3857,
      "nsubtract": 3858,
      "ellow": 3859,
      "req": 3860,
      "Ġhmm": 3861,
      "ilon": 3862,
      "ncase": 3863,
      "Ġdescribed": 3864,
      "Ġhyd": 3865,
      "Ġnormal": 3866,
      "Ġreally": 3867,
      "}=": 3868,
      "Ġteams": 3869,
      "Ġtiles": 3870,
      "Ġachieved": 3871,
      "Ġseat": 3872,
      "Ġquick": 3873,
      "Ġ}{": 3874,
      "Ġoften": 3875,
      "Ġparallelogram": 3876,
      "Ġpossibilities": 3877,
      "queue": 3878,
      ")}\\": 3879,
      "anged": 3880,
      "Ġ38": 3881,
      "Ġbegin": 3882,
      "mo": 3883,
      "Ġpromis": 3884,
      "Ġenter": 3885,
      "Ġextens": 3886,
      "efficient": 3887,
      "Ġcurve": 3888,
      "night": 3889,
      "suming": 3890,
      "oy": 3891,
      "Ġtyp": 3892,
      "Ġrh": 3893,
      "Ġrule": 3894,
      "nmin": 3895,
      "Ġinterpret": 3896,
      "Ġforce": 3897,
      "Ġarg": 3898,
      "arc": 3899,
      "Ġcumulative": 3900,
      "ii": 3901,
      "Ġseats": 3902,
      "Ġ43": 3903,
      "Ġforming": 3904,
      "Ġnames": 3905,
      "|,": 3906,
      "$$\\\\": 3907,
      "reading": 3908,
      "Ġcb": 3909,
      "Ġput": 3910,
      "Ġhappens": 3911,
      "Ġsubarrays": 3912,
      "Ġrun": 3913,
      "98": 3914,
      "Ġstrength": 3915,
      "Ġpromising": 3916,
      "Ġprovide": 3917,
      "Ġ256": 3918,
      "-\\\\": 3919,
      "Ġlex": 3920,
      "Ġreduces": 3921,
      "Ġsuit": 3922,
      "decreasing": 3923,
      "Ġirr": 3924,
      "Ġbad": 3925,
      "Ġbipart": 3926,
      "icit": 3927,
      "Ġcomposit": 3928,
      "Ġstrong": 3929,
      "Ġdecide": 3930,
      "aring": 3931,
      "Ġ41": 3932,
      "Ġgas": 3933,
      "Ġdiscriminant": 3934,
      "Ġscenario": 3935,
      "Ġparameter": 3936,
      "Ġcosines": 3937,
      "vable": 3938,
      "Ġ|\\\\": 3939,
      "Ġalgebra": 3940,
      "Ġinclusive": 3941,
      "Ġuses": 3942,
      "Ġcontinue": 3943,
      "sel": 3944,
      "Ġlos": 3945,
      "sp": 3946,
      "igned": 3947,
      "Ġpairwise": 3948,
      "Ġinradius": 3949,
      "Ġquadrilaterals": 3950,
      "Ġacute": 3951,
      "Ġinteresting": 3952,
      "Ġrounds": 3953,
      "ams": 3954,
      "narea": 3955,
      "aries": 3956,
      "Ġ98": 3957,
      "\"},": 3958,
      "rices": 3959,
      "54": 3960,
      "11111111": 3961,
      "add": 3962,
      "Ġexcluding": 3963,
      "sigma": 3964,
      "Ġsaw": 3965,
      "bl": 3966,
      "ograph": 3967,
      "Ġformulas": 3968,
      "Ġpen": 3969,
      "slant": 3970,
      "Ġperiodic": 3971,
      "oney": 3972,
      "cing": 3973,
      "ather": 3974,
      "Ġcontradicts": 3975,
      "asya": 3976,
      "Ġdam": 3977,
      "Ġspheres": 3978,
      "ols": 3979,
      "Ġrestrict": 3980,
      "work": 3981,
      "Ġ84": 3982,
      "ĠâĢĵ": 3983,
      "matrix": 3984,
      "Ġtens": 3985,
      "readline": 3986,
      "Ġdollars": 3987,
      "Ġmember": 3988,
      "hedral": 3989,
      "Ġfinally": 3990,
      "Ġwhy": 3991,
      "coordinates": 3992,
      "68": 3993,
      "Ġhyper": 3994,
      "Ġcandies": 3995,
      "consuming": 3996,
      "9999": 3997,
      "Ġ55": 3998,
      "Ġgreedy": 3999,
      "Ġfewer": 4000,
      "Ġmathematical": 4001,
      "Ġ\\'.\\": 4002,
      "linder": 4003,
      "97": 4004,
      "Ġbrack": 4005,
      "ncorrect": 4006,
      "ule": 4007,
      "determ": 4008,
      "Ġrecord": 4009,
      "Ġapplying": 4010,
      "Ġconv": 4011,
      "Ġindividual": 4012,
      "ai": 4013,
      "Ġincircle": 4014,
      "Ġ110": 4015,
      "Ġirrational": 4016,
      "æĪĳ": 4017,
      "Ġcp": 4018,
      "ster": 4019,
      "Ġshown": 4020,
      "Ġoptimiz": 4021,
      "Ġbounds": 4022,
      "Ġchem": 4023,
      "Ġprocessing": 4024,
      "Â·": 4025,
      "Ġimp": 4026,
      "Ġcomposite": 4027,
      ")),": 4028,
      "bon": 4029,
      "Ġchanging": 4030,
      "sorted": 4031,
      "bs": 4032,
      "Ġstones": 4033,
      "Ġpossibility": 4034,
      "joint": 4035,
      "ops": 4036,
      "Ġdie": 4037,
      "mer": 4038,
      "Ġalternative": 4039,
      "Ġappend": 4040,
      "Ġchooses": 4041,
      "hehehehehehehehehehehehehehehehe": 4042,
      "Ġreality": 4043,
      ")).\\": 4044,
      "war": 4045,
      "Ġdro": 4046,
      "Ġkind": 4047,
      "Ġminimized": 4048,
      "Ġscores": 4049,
      "Ġtechni": 4050,
      "Ġbeaut": 4051,
      "terns": 4052,
      "calculating": 4053,
      "Ġ63": 4054,
      "Ġapplied": 4055,
      "Ġhim": 4056,
      "Ġduplicates": 4057,
      "Ġcarry": 4058,
      "âĪĴ": 4059,
      "400": 4060,
      "ij": 4061,
      "Ġprof": 4062,
      "by": 4063,
      "Ġfro": 4064,
      "Ġprinciple": 4065,
      "Ġfam": 4066,
      "Ġsines": 4067,
      "Ġanything": 4068,
      "Ġexisting": 4069,
      "Ġholes": 4070,
      "nright": 4071,
      "Ġorient": 4072,
      "Ġcomputed": 4073,
      "Ġsubstitut": 4074,
      "53": 4075,
      "Ġri": 4076,
      "Ġmom": 4077,
      "Ġrooms": 4078,
      "Ġaltitudes": 4079,
      "Ġrecurrence": 4080,
      "Ġgir": 4081,
      "Ġbipartite": 4082,
      "ily": 4083,
      "ring": 4084,
      "Ġstuck": 4085,
      "oring": 4086,
      "Ġstation": 4087,
      "Ġrepeat": 4088,
      "Ġtriples": 4089,
      "Ġber": 4090,
      "Ġcylinder": 4091,
      "Ġvia": 4092,
      ".'},": 4093,
      "Ġcontest": 4094,
      "result": 4095,
      "Ġswitch": 4096,
      "Ġpay": 4097,
      "plane": 4098,
      "Ġprec": 4099,
      "Ġ[-": 4100,
      "Ġyellow": 4101,
      "uit": 4102,
      "wo": 4103,
      "Ġsimulate": 4104,
      "nfind": 4105,
      "dict": 4106,
      "ights": 4107,
      "Ġproperly": 4108,
      "nwith": 4109,
      "Ġsubtracting": 4110,
      "clo": 4111,
      "ode": 4112,
      "Ġoa": 4113,
      "ndraw": 4114,
      "pped": 4115,
      "Ġactive": 4116,
      "ä»¥": 4117,
      "Ġham": 4118,
      "]))\\": 4119,
      "Ġimportant": 4120,
      "Ġbooks": 4121,
      "Ġlabel": 4122,
      "Ġdice": 4123,
      "Ġargum": 4124,
      "Ġcorners": 4125,
      "nmy": 4126,
      "Ġtokens": 4127,
      "nthird": 4128,
      "Ġhash": 4129,
      "Ġrefer": 4130,
      ")(-": 4131,
      "eta": 4132,
      "41": 4133,
      "Ġinner": 4134,
      "Ġremoval": 4135,
      "atives": 4136,
      "Ġsemi": 4137,
      "isms": 4138,
      "Ġhydro": 4139,
      "ished": 4140,
      "Ġspan": 4141,
      "Ġsubgraph": 4142,
      "ndi": 4143,
      "Ġcompared": 4144,
      "ndivide": 4145,
      "how": 4146,
      "51": 4147,
      "Ġba": 4148,
      "nwhen": 4149,
      "ids": 4150,
      "ifth": 4151,
      "ged": 4152,
      "eps": 4153,
      "Ġdetect": 4154,
      "Ġcat": 4155,
      "Ġmn": 4156,
      "ification": 4157,
      "Ġcli": 4158,
      "Ġknight": 4159,
      "Ġlowercase": 4160,
      "));\\": 4161,
      "Ġstick": 4162,
      "Ġmagnitude": 4163,
      "Ġreaches": 4164,
      "Ġconfl": 4165,
      "Ġdest": 4166,
      "ques": 4167,
      "Ġcovering": 4168,
      "63": 4169,
      "Ġrob": 4170,
      "Ġnu": 4171,
      "ends": 4172,
      "Ġche": 4173,
      "aves": 4174,
      "aper": 4175,
      "enger": 4176,
      "nsimplifying": 4177,
      "åħ": 4178,
      "Ġmi": 4179,
      "ything": 4180,
      "Ġeight": 4181,
      "arp": 4182,
      "ric": 4183,
      "bet": 4184,
      "Ġ47": 4185,
      "abel": 4186,
      "Ġ52": 4187,
      "}\\\\):\\": 4188,
      "Ġapart": 4189,
      "Ġmoney": 4190,
      "aneous": 4191,
      "uth": 4192,
      "Ġlam": 4193,
      "ards": 4194,
      "47": 4195,
      "æķ": 4196,
      "Ġtowards": 4197,
      "Ġsigns": 4198,
      "Ġarbitrary": 4199,
      "ko": 4200,
      "Ġbp": 4201,
      "pecif": 4202,
      "nleft": 4203,
      "Ġparticles": 4204,
      "}+": 4205,
      "gan": 4206,
      "Ġsetup": 4207,
      "pose": 4208,
      "Ġwinning": 4209,
      "Ġcome": 4210,
      "èĢ": 4211,
      "Ġbill": 4212,
      "Ġln": 4213,
      "Ġelif": 4214,
      "Ġret": 4215,
      "Ġstri": 4216,
      "Ġpush": 4217,
      "Ġmessage": 4218,
      "Ġhard": 4219,
      "Ġstop": 4220,
      ")\\\\]\\": 4221,
      "Ġ65": 4222,
      "nday": 4223,
      "stems": 4224,
      "Ġnever": 4225,
      "pecifically": 4226,
      "Ġfunctional": 4227,
      "nstill": 4228,
      "Ġpotentially": 4229,
      "Ġpressure": 4230,
      "|.\\": 4231,
      "Ġpatterns": 4232,
      "naddition": 4233,
      "sa": 4234,
      "Ġgues": 4235,
      "Ġlayer": 4236,
      "Ġgenetic": 4237,
      "Ġhomo": 4238,
      "Ġminimizes": 4239,
      "nimplement": 4240,
      "what": 4241,
      "Ġhandling": 4242,
      "Ð°": 4243,
      "ament": 4244,
      "Ġcandidates": 4245,
      "Ġ(`": 4246,
      "Ġnumbered": 4247,
      "bar": 4248,
      "Ġinvolve": 4249,
      "Ġdri": 4250,
      "omet": 4251,
      "Ġinversion": 4252,
      "inf": 4253,
      "\\\\-": 4254,
      "nection": 4255,
      "Ġhappen": 4256,
      "Ġdamage": 4257,
      "lying": 4258,
      "Ġunlike": 4259,
      "ameters": 4260,
      "reg": 4261,
      "Ġsever": 4262,
      "Ġbag": 4263,
      "Ġfaster": 4264,
      "Ġrep": 4265,
      "selves": 4266,
      "Ġconnection": 4267,
      "Ġarrays": 4268,
      "Ġchain": 4269,
      "æī": 4270,
      "Ġexper": 4271,
      "Ġmic": 4272,
      "Ġdenominators": 4273,
      "Ġtrip": 4274,
      "ils": 4275,
      "Ġtrail": 4276,
      "Ġmut": 4277,
      "Ġair": 4278,
      "Ġsolved": 4279,
      "$)": 4280,
      "Ġ10000": 4281,
      "diff": 4282,
      "Ġdish": 4283,
      "Ð¾Ð": 4284,
      "Ġapplicable": 4285,
      "0000000": 4286,
      "Ġ$$\\\\": 4287,
      "Ġconcentration": 4288,
      "]`": 4289,
      "Ġdisjoint": 4290,
      "strip": 4291,
      "sim": 4292,
      "ified": 4293,
      "prev": 4294,
      "Ġrhomb": 4295,
      "Ġenvironment": 4296,
      "Ġthemselves": 4297,
      "Ġsector": 4298,
      "Ġtrain": 4299,
      "Ġvasya": 4300,
      "Ġdrawn": 4301,
      "Ġtrac": 4302,
      "Ġmb": 4303,
      "Ġnucle": 4304,
      "Ġtriplets": 4305,
      "node": 4306,
      "Ġpolar": 4307,
      "mask": 4308,
      "onic": 4309,
      "Ġoutline": 4310,
      "Ġadds": 4311,
      "Ġstar": 4312,
      "height": 4313,
      "Ġseveral": 4314,
      "city": 4315,
      "Ġhomothet": 4316,
      "Ġstay": 4317,
      "Ġconcaten": 4318,
      "Ġfoot": 4319,
      "Ġconnects": 4320,
      "Ġhandles": 4321,
      "Ġtick": 4322,
      "Ġgamma": 4323,
      "Ġ51": 4324,
      "etch": 4325,
      "Ġeffectively": 4326,
      "Ġrewr": 4327,
      "000000": 4328,
      "land": 4329,
      "++": 4330,
      "ploy": 4331,
      "Ġcontinuous": 4332,
      "Ġleaving": 4333,
      "sample": 4334,
      "\\')\\": 4335,
      "nadd": 4336,
      "Ġcuts": 4337,
      "ythag": 4338,
      "nwell": 4339,
      "Ġfocus": 4340,
      "Ġbook": 4341,
      "Ġ111111111": 4342,
      "Ġproof": 4343,
      "epsilon": 4344,
      "\":": 4345,
      "xx": 4346,
      "ror": 4347,
      "nadditionally": 4348,
      ")+": 4349,
      "Ġunlikely": 4350,
      "Ġbir": 4351,
      "300": 4352,
      "Ġage": 4353,
      "pan": 4354,
      "Ġshor": 4355,
      "Ġobtained": 4356,
      "board": 4357,
      "Ġcompan": 4358,
      "Ġregardless": 4359,
      "move": 4360,
      "ĠÏĥ": 4361,
      "Ġdiscre": 4362,
      "maining": 4363,
      "struct": 4364,
      "ncalculate": 4365,
      "Ġten": 4366,
      "va": 4367,
      "Ġpythag": 4368,
      "roup": 4369,
      "Ġsubtended": 4370,
      "nspecifically": 4371,
      "otherwise": 4372,
      "Ġachievable": 4373,
      "è¿Ļ": 4374,
      "nposition": 4375,
      "Ġselection": 4376,
      "Ġrotated": 4377,
      "Ġmarbles": 4378,
      "nconsider": 4379,
      "Ġhull": 4380,
      "ngood": 4381,
      "Ġmapping": 4382,
      ")))\\": 4383,
      "Ġalternating": 4384,
      "åľ": 4385,
      "thest": 4386,
      "Ġpc": 4387,
      "Ġlot": 4388,
      "Ġrunn": 4389,
      "Ġresearch": 4390,
      "Ġben": 4391,
      "Ġtower": 4392,
      "ĠÎ»": 4393,
      "Ġeverything": 4394,
      "ÑĤ": 4395,
      "orean": 4396,
      "Ġpolygons": 4397,
      "mic": 4398,
      "uced": 4399,
      "connect": 4400,
      "jective": 4401,
      "Ġtransformations": 4402,
      "determine": 4403,
      "|=": 4404,
      "å®": 4405,
      "ym": 4406,
      "Ġacid": 4407,
      "Ġparticle": 4408,
      "Ġsimplifying": 4409,
      "Ġcancel": 4410,
      "Ġsuc": 4411,
      "go": 4412,
      "å°": 4413,
      "Ġsystems": 4414,
      "ĥ½": 4415,
      "Ġgl": 4416,
      "Ġdeque": 4417,
      "color": 4418,
      "ilt": 4419,
      "87": 4420,
      "ä¹": 4421,
      "Ġunif": 4422,
      "Ġcounted": 4423,
      "Ġparse": 4424,
      "cording": 4425,
      "Ġabst": 4426,
      "Ġshorter": 4427,
      "fined": 4428,
      "Ġcour": 4429,
      "Ġspac": 4430,
      "Ġdistribute": 4431,
      "Ġspin": 4432,
      "erate": 4433,
      "Ġphys": 4434,
      "Ġmultiplication": 4435,
      "ĠĠĠĠĠĠ": 4436,
      "Ġswapping": 4437,
      "Ġlimits": 4438,
      "Ġhund": 4439,
      "Ġreads": 4440,
      "ugh": 4441,
      "Ġagainst": 4442,
      "Ġoverlaps": 4443,
      "char": 4444,
      "Ġcomes": 4445,
      "Ġchords": 4446,
      "Ġ\\'.\\'": 4447,
      "Ġsubstitution": 4448,
      "abcd": 4449,
      "Ġcoverage": 4450,
      "Ġeffects": 4451,
      "cons": 4452,
      "lections": 4453,
      "ĠĠĠĠĠĠĠĠĠĠĠĠĠĠĠĠĠĠĠĠĠĠĠ": 4454,
      "Ġ59": 4455,
      "ometimes": 4456,
      "inte": 4457,
      "values": 4458,
      "ips": 4459,
      "Ġabstract": 4460,
      "iness": 4461,
      "Ġpythagorean": 4462,
      "segment": 4463,
      "Ġring": 4464,
      "Ġwee": 4465,
      "Ġable": 4466,
      "Ġworking": 4467,
      "Ġclockwise": 4468,
      "Ġderive": 4469,
      "itions": 4470,
      "Ġprecision": 4471,
      "333": 4472,
      "naccording": 4473,
      "}$,": 4474,
      "child": 4475,
      "Ġbel": 4476,
      "nall": 4477,
      "Ġcombinator": 4478,
      "Ġmissed": 4479,
      "Ġinteractions": 4480,
      "ik": 4481,
      "Ġpet": 4482,
      "imit": 4483,
      "ultaneous": 4484,
      "Ġtreat": 4485,
      "Ġvisible": 4486,
      "floor": 4487,
      "Ġ)\\": 4488,
      "Ġitem": 4489,
      "Ġsomewhere": 4490,
      "43": 4491,
      "Ġbuilt": 4492,
      "Ġtransition": 4493,
      "romatic": 4494,
      "Ġ121": 4495,
      "num": 4496,
      "Ġsimultaneous": 4497,
      "Ġendpoints": 4498,
      "Ġreachable": 4499,
      "Ġsketch": 4500,
      "rel": 4501,
      "}_{": 4502,
      "initial": 4503,
      "(-\\\\": 4504,
      "Ġsched": 4505,
      "Ġ111111111110": 4506,
      ".}}": 4507,
      "Ġvelo": 4508,
      "Ġflipping": 4509,
      "Ġsupport": 4510,
      "Ġmaximized": 4511,
      "olve": 4512,
      "Ġleave": 4513,
      "Ġ46": 4514,
      "oci": 4515,
      "Ġpreser": 4516,
      "ndistance": 4517,
      "Ġissue": 4518,
      "two": 4519,
      "Ġsal": 4520,
      "nlabel": 4521,
      "cup": 4522,
      "lor": 4523,
      "onal": 4524,
      "Ġessent": 4525,
      "nthese": 4526,
      "Ġdirected": 4527,
      "sequence": 4528,
      "Ġfood": 4529,
      "Ġmoment": 4530,
      "Ġprobabilities": 4531,
      "95": 4532,
      "pq": 4533,
      "Ġhome": 4534,
      "Ġdisk": 4535,
      "Ġvary": 4536,
      "Ġestim": 4537,
      "notherwise": 4538,
      "agram": 4539,
      "Ġpartial": 4540,
      "Ġabsor": 4541,
      "Ġcontrol": 4542,
      "Ġreturns": 4543,
      "!}": 4544,
      "Ġeu": 4545,
      "Ġtransitions": 4546,
      "Ġissues": 4547,
      "Ġrhombus": 4548,
      "Ġlogarithms": 4549,
      "aks": 4550,
      "tle": 4551,
      "partial": 4552,
      "Ġjumps": 4553,
      "Ġleg": 4554,
      "Ġspeculative": 4555,
      "counting": 4556,
      "nread": 4557,
      "Ġsent": 4558,
      "Ġsometimes": 4559,
      "Ġcou": 4560,
      "Ġsliding": 4561,
      "Ġslopes": 4562,
      "ee": 4563,
      "Ġeat": 4564,
      "Ġcomposition": 4565,
      "Ġformation": 4566,
      "Ġextended": 4567,
      "Ġlowest": 4568,
      "dx": 4569,
      "Â°)": 4570,
      "Ġcolored": 4571,
      "Ġgeneralize": 4572,
      "Ġchallenging": 4573,
      "Ġintro": 4574,
      "aus": 4575,
      "\\\\%": 4576,
      "Ġwalk": 4577,
      "Ġoctagon": 4578,
      "Ġhomothety": 4579,
      "mu": 4580,
      "Ġtriangular": 4581,
      "Ġmanip": 4582,
      "Ġlocated": 4583,
      "Ġinfluence": 4584,
      "gm": 4585,
      "ndif": 4586,
      "scr": 4587,
      "know": 4588,
      "Ġwave": 4589,
      "256": 4590,
      "Ġoccurre": 4591,
      "nprefix": 4592,
      "mathscr": 4593,
      "Ġlabels": 4594,
      "05": 4595,
      "Ġpainted": 4596,
      "Ġparticipants": 4597,
      ")\\\\).": 4598,
      "Ġemploy": 4599,
      "Ġdf": 4600,
      "allel": 4601,
      "Ġassoci": 4602,
      "Ġlocus": 4603,
      "range": 4604,
      "Ġ128": 4605,
      "Ġprecisely": 4606,
      "Ġdivisibility": 4607,
      "ncalculating": 4608,
      "Ġuniform": 4609,
      "|\\\\": 4610,
      "Ġmatrices": 4611,
      "Ġindicating": 4612,
      "Ġfifth": 4613,
      "lceil": 4614,
      "och": 4615,
      "46": 4616,
      "è¯": 4617,
      "seud": 4618,
      "Ġvs": 4619,
      "rceil": 4620,
      "Ġcloser": 4621,
      "ä¸Ģ": 4622,
      "Ġnetwork": 4623,
      "Ġbeginning": 4624,
      "Ġ\\\\)-": 4625,
      "ategor": 4626,
      "...,": 4627,
      "Ġapples": 4628,
      "freq": 4629,
      "Ġsine": 4630,
      "2000": 4631,
      "Ġflips": 4632,
      "Ġseven": 4633,
      "Ġclearly": 4634,
      "Ġsimultaneously": 4635,
      "lcm": 4636,
      "Ġspent": 4637,
      "Ġ900": 4638,
      "Ġheat": 4639,
      "''": 4640,
      "play": 4641,
      "Ġloss": 4642,
      "Ġoptimization": 4643,
      "ili": 4644,
      "Ġpm": 4645,
      "Ġresour": 4646,
      "Ġsuccess": 4647,
      "nces": 4648,
      "Ġbx": 4649,
      "ination": 4650,
      "Ġrepeats": 4651,
      "Ġspect": 4652,
      "oose": 4653,
      "Ġcoincide": 4654,
      "Ġexit": 4655,
      "nassign": 4656,
      "Ġprevent": 4657,
      ",$": 4658,
      "Ġexpressing": 4659,
      "nwhile": 4660,
      "Ġconstants": 4661,
      "Ġmention": 4662,
      "Ġfold": 4663,
      "Ġsummary": 4664,
      "Ġcast": 4665,
      "agin": 4666,
      "ginal": 4667,
      "nq": 4668,
      "Ġplants": 4669,
      "nfactor": 4670,
      "thal": 4671,
      "Ġcomputation": 4672,
      "Ġquickly": 4673,
      "tt": 4674,
      "èĥ½": 4675,
      "Ġfinish": 4676,
      "ptr": 4677,
      "Ġmolecules": 4678,
      "å¤": 4679,
      "second": 4680,
      "Ġcharge": 4681,
      "æķ°": 4682,
      "Ġsymb": 4683,
      "Ġabd": 4684,
      "Ġoccur": 4685,
      "Ġfavorable": 4686,
      "59": 4687,
      "Ġanswers": 4688,
      "ä½Ĩ": 4689,
      "uck": 4690,
      "nequ": 4691,
      "otic": 4692,
      "Ġreduced": 4693,
      "Ġmerge": 4694,
      "Ġsimplified": 4695,
      "join": 4696,
      "Ġresidues": 4697,
      "Ġintrod": 4698,
      "Ġouter": 4699,
      "pa": 4700,
      "atter": 4701,
      "ox": 4702,
      "ogonal": 4703,
      "Ġpractice": 4704,
      "Ġtasks": 4705,
      "Ġaa": 4706,
      "Ġfib": 4707,
      "uel": 4708,
      "icture": 4709,
      "Ġgrowth": 4710,
      "Ġconstruction": 4711,
      "Ġgenerally": 4712,
      "size": 4713,
      "Ġdelta": 4714,
      "cases": 4715,
      "lex": 4716,
      "Ġking": 4717,
      "Ġproduce": 4718,
      "Ġpercentage": 4719,
      "Ġmicro": 4720,
      "su": 4721,
      "\\'.": 4722,
      "Ġtravel": 4723,
      "Ġmet": 4724,
      "Ġexplo": 4725,
      "Ġrectangular": 4726,
      "omic": 4727,
      "plicity": 4728,
      "ä¸į": 4729,
      "Ġclasses": 4730,
      "Ġ2016": 4731,
      "Ġaccum": 4732,
      "Ġenthal": 4733,
      "Ġuniverse": 4734,
      "åľ¨": 4735,
      "aginary": 4736,
      "aw": 4737,
      "Ġdesign": 4738,
      "Ġcomplement": 4739,
      "Ġpriority": 4740,
      "jor": 4741,
      "Ġexploit": 4742,
      "Ġderived": 4743,
      "={": 4744,
      "Ġmill": 4745,
      "consist": 4746,
      "nab": 4747,
      "Ġplays": 4748,
      "Ġexponential": 4749,
      "(\"$": 4750,
      "nsubstitute": 4751,
      "Ġmentions": 4752,
      "Ġcow": 4753,
      "icograph": 4754,
      "nexpanding": 4755,
      "Ġhyperb": 4756,
      "Ġsimplicity": 4757,
      "nsorted": 4758,
      "section": 4759,
      "Ġneut": 4760,
      "$\",": 4761,
      "Ġminimizing": 4762,
      "Ġfail": 4763,
      "npoint": 4764,
      "Ġaut": 4765,
      "83": 4766,
      "Ġpolyhedron": 4767,
      "Ġcompletely": 4768,
      "Ġtraversal": 4769,
      "Ġful": 4770,
      "Ġspecify": 4771,
      "Ġunity": 4772,
      "Ġ225": 4773,
      "Ġstrip": 4774,
      "problem": 4775,
      "02": 4776,
      "Ġland": 4777,
      "heap": 4778,
      "Ġprojections": 4779,
      "Ġangular": 4780,
      "Ġpicture": 4781,
      "Ġplant": 4782,
      "Ġdenot": 4783,
      "Ġexceeds": 4784,
      "Ġelectrons": 4785,
      "Ġcolorings": 4786,
      "ĠâĪł": 4787,
      "Ġprecomput": 4788,
      "Ġestablish": 4789,
      "Ġscc": 4790,
      "Ġextre": 4791,
      "Ġfarthest": 4792,
      "nonce": 4793,
      "width": 4794,
      "Ġrays": 4795,
      "rows": 4796,
      "Ġdrawing": 4797,
      "Ġatoms": 4798,
      "Ġsho": 4799,
      "Ġflowers": 4800,
      "Ġcircumference": 4801,
      "Ġoppon": 4802,
      "Ġrestrictions": 4803,
      "Ġvelocity": 4804,
      "bal": 4805,
      "Ġorgan": 4806,
      "Ġ57": 4807,
      "Ġstructures": 4808,
      "Ġcosine": 4809,
      "nprocess": 4810,
      "Ġtext": 4811,
      "Ġlexicograph": 4812,
      "ru": 4813,
      "square": 4814,
      "Ġcategor": 4815,
      "Ġcarbon": 4816,
      "Ġbul": 4817,
      "Ġ67": 4818,
      "Ġpassenger": 4819,
      "?\"": 4820,
      "Ġing": 4821,
      "Ġqr": 4822,
      "Ġdual": 4823,
      "Ġ111": 4824,
      "Ġ2020": 4825,
      "Ġrelatively": 4826,
      "Ġsit": 4827,
      "Ġdihedral": 4828,
      "usion": 4829,
      "Ġbacter": 4830,
      "vel": 4831,
      "Ġ2010": 4832,
      "Ġbcd": 4833,
      "identify": 4834,
      "Ġaf": 4835,
      "Ġtopological": 4836,
      "Ġpicks": 4837,
      "Ġextend": 4838,
      "2016": 4839,
      "overl": 4840,
      "Ġinversions": 4841,
      "Ġdb": 4842,
      "Ġaccess": 4843,
      "Ġ$[": 4844,
      "çĤ": 4845,
      "Ġwire": 4846,
      "Ġordering": 4847,
      "impossible": 4848,
      "Ġenthalpy": 4849,
      "Ġdecom": 4850,
      "Ġworst": 4851,
      "Ġmembers": 4852,
      "aking": 4853,
      "lish": 4854,
      "redi": 4855,
      "Ġ108": 4856,
      "Ġindexing": 4857,
      "carp": 4858,
      "Ġextension": 4859,
      "iguous": 4860,
      "conclusion": 4861,
      "Ġsell": 4862,
      "Ġmex": 4863,
      "Ġestablished": 4864,
      "Ġanimal": 4865,
      "Ġmaximizes": 4866,
      "Ġevaluate": 4867,
      "Ġplas": 4868,
      "Ġfits": 4869,
      "001": 4870,
      "next": 4871,
      "neighb": 4872,
      "Ġoccurrences": 4873,
      "Ġwinner": 4874,
      "Ġrunning": 4875,
      "asy": 4876,
      "Ġpseud": 4877,
      "Ġdescription": 4878,
      "=\\'": 4879,
      "ool": 4880,
      "Â°.\\": 4881,
      "360": 4882,
      "Ġtesting": 4883,
      "Ġshifts": 4884,
      "nz": 4885,
      "Ġpaper": 4886,
      "acci": 4887,
      "Ġlang": 4888,
      "}/": 4889,
      "\\\\.": 4890,
      "Ġ240": 4891,
      "Ġpill": 4892,
      "onacci": 4893,
      "Ġrotating": 4894,
      "Ġfactorials": 4895,
      "Ñģ": 4896,
      "çĶ": 4897,
      "Ġmetal": 4898,
      "ned": 4899,
      "Ġinconsist": 4900,
      "defined": 4901,
      "spect": 4902,
      "Ġisot": 4903,
      "Ġiterative": 4904,
      "Ġthing": 4905,
      "Ġdom": 4906,
      "oluted": 4907,
      "Ġapproximation": 4908,
      "Ġcontribution": 4909,
      "Ġreciprocal": 4910,
      "Ġconvoluted": 4911,
      "Ġcruc": 4912,
      "Ġguess": 4913,
      "58": 4914,
      "ift": 4915,
      "Ġrecursively": 4916,
      "Ġkj": 4917,
      "Ġthough": 4918,
      "uchy": 4919,
      "Ġfloat": 4920,
      "Ġcrucial": 4921,
      "Ġchess": 4922,
      "nde": 4923,
      "Ġmedians": 4924,
      "Ġpurch": 4925,
      "etric": 4926,
      "/âĪļ": 4927,
      "iginal": 4928,
      "æĿ": 4929,
      "Ġhit": 4930,
      "Ġboundaries": 4931,
      "true": 4932,
      "Ġnorth": 4933,
      "]/": 4934,
      "yl": 4935,
      "nyou": 4936,
      "Ġclar": 4937,
      "Ġmemo": 4938,
      "Ġparam": 4939,
      "Ġmisunderstanding": 4940,
      "Ġimpro": 4941,
      "Ġperforming": 4942,
      "liver": 4943,
      "Ġinefficient": 4944,
      "çĤ¹": 4945,
      "Ġtransport": 4946,
      "ibri": 4947,
      "Ġspherical": 4948,
      ")`": 4949,
      "Ġimaginary": 4950,
      "Ġ250": 4951,
      "Ġjoin": 4952,
      "ology": 4953,
      "Ġreflecting": 4954,
      "mon": 4955,
      "),(": 4956,
      "nhe": 4957,
      "Ġ2019": 4958,
      "Ġshared": 4959,
      "Ġbeauty": 4960,
      ")}{\\\\": 4961,
      "Ġtheta": 4962,
      "Ġpopulation": 4963,
      "Ġingredi": 4964,
      "Ġnest": 4965,
      "Ġ78": 4966,
      "Ġtouches": 4967,
      "Ġeast": 4968,
      "Ġyz": 4969,
      "Ġenglish": 4970,
      "Ġobtuse": 4971,
      "Ġold": 4972,
      "Ġsource": 4973,
      "ibrium": 4974,
      "Ġ\\\\(\\\\{": 4975,
      "Ġrolls": 4976,
      "Ġ58": 4977,
      "Ġ97": 4978,
      "Ġ(-\\\\": 4979,
      "Ġargument": 4980,
      "Ġcircumcircles": 4981,
      "Ġspanning": 4982,
      "\\')": 4983,
      "Ġprocesses": 4984,
      "Ġalternate": 4985,
      "plus": 4986,
      "Ġresidue": 4987,
      "Ġfibonacci": 4988,
      "Ð½": 4989,
      "perimeter": 4990,
      "åı¯èĥ½": 4991,
      "flow": 4992,
      "Ġft": 4993,
      "Ġcf": 4994,
      "Ġlimited": 4995,
      "=\"": 4996,
      "Ġsubject": 4997,
      "apped": 4998,
      "Ġmarks": 4999,
      "poses": 5000,
      "tally": 5001,
      "Ġoc": 5002,
      "Ġdiagram": 5003,
      "Ġceiling": 5004,
      "61": 5005,
      "Ð¸": 5006,
      "adj": 5007,
      "Ġtypically": 5008,
      "Ġpiles": 5009,
      "straints": 5010,
      "Ġprofit": 5011,
      "Ġapplies": 5012,
      "known": 5013,
      "Ġleaf": 5014,
      "Ġ105": 5015,
      "Ġsplitting": 5016,
      "Ġframe": 5017,
      "Ġnothing": 5018,
      "together": 5019,
      "Ġcause": 5020,
      "Ġfore": 5021,
      "Ġ210": 5022,
      "ÏĨ": 5023,
      "reds": 5024,
      "Ġshowing": 5025,
      "Ġevolution": 5026,
      "Ġgrows": 5027,
      "Ġmask": 5028,
      "Ġbrid": 5029,
      "Ġkg": 5030,
      "Ġcook": 5031,
      "Ġinstance": 5032,
      "Ġplasma": 5033,
      "Ġbomb": 5034,
      "Ġextract": 5035,
      "parallel": 5036,
      "Ġeucl": 5037,
      "ÑĢ": 5038,
      "Ġconson": 5039,
      "Ġcosmic": 5040,
      "Ġequilibrium": 5041,
      "Ġcauchy": 5042,
      "Ġ\\'*": 5043,
      "ouses": 5044,
      "Ġlocation": 5045,
      "Ġadjusted": 5046,
      "Ġprovides": 5047,
      "\\\\]\\\\[": 5048,
      "Ġfully": 5049,
      "Ġcontributes": 5050,
      "Ġsubsequent": 5051,
      "Ġmistakes": 5052,
      "$),": 5053,
      "Ġign": 5054,
      "Ġpages": 5055,
      "æľī": 5056,
      "hat": 5057,
      "izz": 5058,
      "Ġ91": 5059,
      "you": 5060,
      "une": 5061,
      "Ġadap": 5062,
      "âĢĿ": 5063,
      "Ġvotes": 5064,
      "Ġaltogether": 5065,
      "Ġmix": 5066,
      "Ġexplicit": 5067,
      "warz": 5068,
      "Ïī": 5069,
      "è¦": 5070,
      "Ġ\\\\([": 5071,
      "Ġdeliver": 5072,
      "123": 5073,
      "Ġappropriate": 5074,
      "Ġheads": 5075,
      "Ġlangu": 5076,
      "duct": 5077,
      "Ġgain": 5078,
      "00000000": 5079,
      "process": 5080,
      "Ġorders": 5081,
      "Ġconsum": 5082,
      "'.\\": 5083,
      "Ġharm": 5084,
      "Ġox": 5085,
      "Ġperiods": 5086,
      "Ġobserv": 5087,
      "Ġvice": 5088,
      "Ġah": 5089,
      "Ġprefer": 5090,
      "Ġaddit": 5091,
      "Ġ|\\": 5092,
      "Ġ<<": 5093,
      "æ¯": 5094,
      "Ġpost": 5095,
      "Ġchemical": 5096,
      "Ġappropriately": 5097,
      "Ġ216": 5098,
      "near": 5099,
      "Ġ,": 5100,
      "Ġreached": 5101,
      "Ġmag": 5102,
      "Ġ89": 5103,
      "Ġexclude": 5104,
      "Ġbasis": 5105,
      "overlapping": 5106,
      "enw": 5107,
      "Ġlateral": 5108,
      "Ġversa": 5109,
      "idean": 5110,
      "Ġindependently": 5111,
      "Ġtechniques": 5112,
      "375": 5113,
      "Ġconfirms": 5114,
      "elace": 5115,
      "enwick": 5116,
      "Ġ[\\'": 5117,
      "grid": 5118,
      "cyclic": 5119,
      "Ġcapt": 5120,
      "Ġsimilarity": 5121,
      "Ġexperim": 5122,
      "Ġtrailing": 5123,
      "nadding": 5124,
      ".\\\\]\\": 5125,
      "Ġmolecular": 5126,
      "Ġhead": 5127,
      ")}{(": 5128,
      "Ġloses": 5129,
      "tau": 5130,
      "Ġnumerical": 5131,
      "Ġrais": 5132,
      "solving": 5133,
      "Ġusually": 5134,
      "Ġboys": 5135,
      "Ġquadrant": 5136,
      "Ġweek": 5137,
      "Ġrespective": 5138,
      "my": 5139,
      "Ġ66": 5140,
      "Ġdisks": 5141,
      "ima": 5142,
      "Ġspecifies": 5143,
      "counts": 5144,
      "nrec": 5145,
      "ication": 5146,
      "Ġ160": 5147,
      "iddle": 5148,
      "key": 5149,
      "Ġwalking": 5150,
      "Ġfractional": 5151,
      "Ġmen": 5152,
      "Ġmach": 5153,
      "ulations": 5154,
      "Ġ77": 5155,
      "bi": 5156,
      "Ġequid": 5157,
      "Ġsuitable": 5158,
      "ingu": 5159,
      "}}\\\\": 5160,
      "Ġhyperbola": 5161,
      "Ġape": 5162,
      "inear": 5163,
      "Ġfloating": 5164,
      "Ġ53": 5165,
      "Ġalphabet": 5166,
      "nearlier": 5167,
      "79": 5168,
      "Ġincom": 5169,
      "Ġxi": 5170,
      "lock": 5171,
      "Ġscaling": 5172,
      "aba": 5173,
      "Ġwonder": 5174,
      "Ġpractical": 5175,
      "Ġrobot": 5176,
      "tin": 5177,
      "Ġtraverse": 5178,
      "Ġeuclidean": 5179,
      "Ġ61": 5180,
      "ium": 5181,
      "Ġsupposed": 5182,
      "gies": 5183,
      "åĲİ": 5184,
      "Ġbracket": 5185,
      "Ġmol": 5186,
      "Ġhands": 5187,
      "Ġdelete": 5188,
      "requ": 5189,
      "Ġpare": 5190,
      "Ġ625": 5191,
      "Ġdetermining": 5192,
      "ahedron": 5193,
      "Ġfactored": 5194,
      "type": 5195,
      "<=": 5196,
      "Ġpairing": 5197,
      "base": 5198,
      "Ġgaps": 5199,
      "Ġtax": 5200,
      "Ġremoves": 5201,
      "Î´": 5202,
      "Ġgal": 5203,
      "Ġ(\\'": 5204,
      "Ġforward": 5205,
      "Ġmirror": 5206,
      "Ġapex": 5207,
      "option": 5208,
      "Ġhorizontally": 5209,
      "äºİ": 5210,
      "integer": 5211,
      "tty": 5212,
      "uts": 5213,
      "10000": 5214,
      "Ġactiv": 5215,
      "Ġshoelace": 5216,
      "Ġwaves": 5217,
      "Ġshouldn": 5218,
      "Ġrotate": 5219,
      "Ġreactions": 5220,
      "}:": 5221,
      "Ġuser": 5222,
      "Ġexternally": 5223,
      "ana": 5224,
      "Ġgap": 5225,
      ")))": 5226,
      "Ġchairs": 5227,
      "Ġ600": 5228,
      "Ġtotaling": 5229,
      "Ġ2017": 5230,
      "Ġdimension": 5231,
      "Ġenclo": 5232,
      "Ġdrink": 5233,
      "Ġhundreds": 5234,
      "sters": 5235,
      "åı¯ä»¥": 5236,
      "==": 5237,
      "Ġbeta": 5238,
      "Ġcombinatorial": 5239,
      "éĢ": 5240,
      "Ġ85": 5241,
      "Ġorientation": 5242,
      "Ġmentioned": 5243,
      "Ġmaintaining": 5244,
      "Ġequidistant": 5245,
      "irection": 5246,
      "ĠâĢľ": 5247,
      "Ġlabeled": 5248,
      "åĪ°": 5249,
      "ä¸º": 5250,
      "ests": 5251,
      "Ġpetya": 5252,
      "})(": 5253,
      "top": 5254,
      "imeters": 5255,
      "Ġ[[": 5256,
      "ustom": 5257,
      "Ġ00": 5258,
      ")}(": 5259,
      "Ġassociated": 5260,
      "tion": 5261,
      "ene": 5262,
      "Ġcontiguous": 5263,
      "Ġhydrogen": 5264,
      "Ġdomain": 5265,
      "Ġaren": 5266,
      "Ġworry": 5267,
      "150": 5268,
      "800": 5269,
      "Ġpretty": 5270,
      "Ġexpects": 5271,
      "nassume": 5272,
      "è¦ģ": 5273,
      "atches": 5274,
      "Ġentries": 5275,
      "Ġsqu": 5276,
      "Ġparsing": 5277,
      "Ġpolycarp": 5278,
      "Ġvowels": 5279,
      "Ġsongs": 5280,
      "}-": 5281,
      "Ġquarter": 5282,
      "pare": 5283,
      "Ġbalanced": 5284,
      "uff": 5285,
      "free": 5286,
      "Ġlat": 5287,
      "Ġvertically": 5288,
      "boo": 5289,
      "card": 5290,
      "ĠâĢ¢": 5291,
      "cb": 5292,
      "Ġste": 5293,
      "Ġmajor": 5294,
      "noper": 5295,
      "man": 5296,
      "Ġelectro": 5297,
      "Ġreversed": 5298,
      "Ġinterpretation": 5299,
      "Ġspre": 5300,
      "\\\\)**:\\": 5301,
      "minus": 5302,
      "Ġlater": 5303,
      "construct": 5304,
      "clockwise": 5305,
      "]]": 5306,
      "åĴ": 5307,
      "Ġ169": 5308,
      "åĴĮ": 5309,
      "Ġtile": 5310,
      "Ġequally": 5311,
      ")\\\\):\\": 5312,
      "separ": 5313,
      "Ġcans": 5314,
      "ptions": 5315,
      "Ġfenwick": 5316,
      "Ġmarked": 5317,
      "anks": 5318,
      "Ġbelong": 5319,
      "uary": 5320,
      "è¡": 5321,
      "Ġtriplet": 5322,
      "Ġparenthes": 5323,
      "æĸ": 5324,
      "Ġpage": 5325,
      "Ġsummarize": 5326,
      "Ġphase": 5327,
      "[\\'": 5328,
      "ze": 5329,
      "Ġlocal": 5330,
      "Ġreciproc": 5331,
      "}$.": 5332,
      "Ġcustom": 5333,
      "Ġ-(": 5334,
      "Ġmoved": 5335,
      "Ġarbitrarily": 5336,
      "Ġdominoes": 5337,
      "ault": 5338,
      "lower": 5339,
      "pression": 5340,
      "Ġcontribute": 5341,
      "+\\\\": 5342,
      "Ġmeasures": 5343,
      ",\\\\": 5344,
      "82": 5345,
      "sch": 5346,
      "Î»": 5347,
      "Ġstations": 5348,
      "leqslant": 5349,
      "Ġsouth": 5350,
      "nique": 5351,
      "Ġperformed": 5352,
      "nchoose": 5353,
      "tree": 5354,
      "Ġions": 5355,
      "Ġrequirements": 5356,
      "Ġtransfer": 5357,
      "Ġvolumes": 5358,
      "Ġsubsegment": 5359,
      "Ġ2018": 5360,
      "Ġestimate": 5361,
      "group": 5362,
      "Ġmph": 5363,
      "}{-": 5364,
      "Ġalign": 5365,
      "æĪĸ": 5366,
      "ninde": 5367,
      "Ġparameters": 5368,
      "Ġscal": 5369,
      "Ġquar": 5370,
      "2006": 5371,
      "Ġmode": 5372,
      "Ġmemory": 5373,
      "Ġna": 5374,
      "Ġability": 5375,
      "inguish": 5376,
      "Ġleftmost": 5377,
      "Ġallowing": 5378,
      "Ġ\\'#": 5379,
      "Ġarranging": 5380,
      "Ġconcyclic": 5381,
      "crete": 5382,
      "pied": 5383,
      "pected": 5384,
      "Ġmodular": 5385,
      "iew": 5386,
      "Ġvowel": 5387,
      "240": 5388,
      "2002": 5389,
      "Ġparents": 5390,
      "Ġessentially": 5391,
      "å¯": 5392,
      "Ġparty": 5393,
      "Ġindicates": 5394,
      "Ġparticipant": 5395,
      "mn": 5396,
      "666": 5397,
      "jk": 5398,
      "imally": 5399,
      "Ġdelet": 5400,
      "250": 5401,
      "Ġmodels": 5402,
      "phere": 5403,
      "Ġcompany": 5404,
      "Ġbank": 5405,
      "Ġiv": 5406,
      "Ġconcrete": 5407,
      "ntest": 5408,
      "ncombine": 5409,
      "éĹ": 5410,
      "Ġhum": 5411,
      "Ġray": 5412,
      "nby": 5413,
      "ç»": 5414,
      "Ġcombining": 5415,
      "aven": 5416,
      "nrecall": 5417,
      "zz": 5418,
      "Ġrating": 5419,
      "pop": 5420,
      "Ġreciprocals": 5421,
      "ills": 5422,
      "Ġprinted": 5423,
      "Ġ]\\": 5424,
      "ison": 5425,
      "ctan": 5426,
      "array": 5427,
      "Ġneighboring": 5428,
      "Ġdepart": 5429,
      "Ġreduction": 5430,
      "Ġmasses": 5431,
      "wns": 5432,
      "Ġpred": 5433,
      "Ġboy": 5434,
      "ocode": 5435,
      "Ġradians": 5436,
      "91": 5437,
      "Ġisol": 5438,
      "plan": 5439,
      "Ġreducing": 5440,
      "Ġprism": 5441,
      "Ġloops": 5442,
      "86": 5443,
      "tons": 5444,
      "éľ": 5445,
      "onds": 5446,
      "Ġnotice": 5447,
      "Ġuniquely": 5448,
      "æīĢ": 5449,
      "éľĢ": 5450,
      "Ġcance": 5451,
      "Ġreasonable": 5452,
      "Ġbroad": 5453,
      "Ġbenef": 5454,
      "Ġnim": 5455,
      "dist": 5456,
      "icking": 5457,
      "Ġprints": 5458,
      "Ġflu": 5459,
      "}$'},": 5460,
      "Ġeventually": 5461,
      "Ġuppercase": 5462,
      "Ġ...\\": 5463,
      "apes": 5464,
      "!}{": 5465,
      "éĩ": 5466,
      "Ġforces": 5467,
      "Ġattach": 5468,
      "Ġrough": 5469,
      "92": 5470,
      "Ġcollections": 5471,
      "Ġcontradict": 5472,
      ".\\\\": 5473,
      "Ġopponent": 5474,
      "Ġbb": 5475,
      "Ġstone": 5476,
      "Ġpolymer": 5477,
      "black": 5478,
      "rho": 5479,
      "Ġmaterials": 5480,
      "Ġrightmost": 5481,
      "Ġjob": 5482,
      "Ġclique": 5483,
      "Ġinduction": 5484,
      "fact": 5485,
      "Ġ|(": 5486,
      "Ġ140": 5487,
      "Ġcontexts": 5488,
      "Ġautom": 5489,
      "ball": 5490,
      "Ġdiscrepan": 5491,
      "ales": 5492,
      "Ġtemperatures": 5493,
      "product": 5494,
      "Ġ&=": 5495,
      "vial": 5496,
      "iss": 5497,
      "Ġinser": 5498,
      "Ġphi": 5499,
      "Ġsocks": 5500,
      "Ġmeeting": 5501,
      "Ġliters": 5502,
      "\";": 5503,
      "Ġpreviously": 5504,
      "Ġplanet": 5505,
      "days": 5506,
      "nsetting": 5507,
      "Ġarrival": 5508,
      "éľĢè¦ģ": 5509,
      "Ġplaus": 5510,
      "assign": 5511,
      "çĦ": 5512,
      "Ġwriting": 5513,
      "ĠÎ¼": 5514,
      "Ġmolecule": 5515,
      "Ġfrog": 5516,
      "çĦ¶": 5517,
      "Ġtown": 5518,
      "Ġdistributed": 5519,
      "600": 5520,
      "da": 5521,
      "Ġdiam": 5522,
      "Ġmaximizing": 5523,
      "Ġplausible": 5524,
      "Ġstatements": 5525,
      "%,": 5526,
      "nbo": 5527,
      "Ġrecursion": 5528,
      "state": 5529,
      "Ġoptimized": 5530,
      "iation": 5531,
      "Ġkn": 5532,
      "Ġanywhere": 5533,
      "çĶ¨": 5534,
      ")$,": 5535,
      "Ġmile": 5536,
      "Ġnature": 5537,
      "Ġremainders": 5538,
      "||": 5539,
      "Ġmonster": 5540,
      "nexample": 5541,
      "Ġexceeding": 5542,
      "hehehehehehehehehehehehehehehehehehehehehehehehehehehehehehehehe": 5543,
      "dimens": 5544,
      "given": 5545,
      "npoints": 5546,
      "Ġ}\\\\": 5547,
      "Ġdir": 5548,
      "121": 5549,
      "Ġdeterminant": 5550,
      "Ġfilled": 5551,
      "Ġ95": 5552,
      "Ġheav": 5553,
      "nremaining": 5554,
      "interval": 5555,
      "Ġimpact": 5556,
      "nbring": 5557,
      "nelif": 5558,
      "Ġconcurrent": 5559,
      "Ġreceives": 5560,
      "gre": 5561,
      "path": 5562,
      "Ġbow": 5563,
      "Ġexam": 5564,
      "Ġkx": 5565,
      "Ġju": 5566,
      ">=": 5567,
      "Ġsnow": 5568,
      "Ġsimulation": 5569,
      "216": 5570,
      "Ġlif": 5571,
      "åŃ": 5572,
      "\\\\[(": 5573,
      "nnew": 5574,
      "Ġcal": 5575,
      "Ġcomparing": 5576,
      "itten": 5577,
      "iral": 5578,
      "Ġundefined": 5579,
      "Ġdetermines": 5580,
      "%.\\": 5581,
      "words": 5582,
      "'\\": 5583,
      "uses": 5584,
      "{(-": 5585,
      "geqslant": 5586,
      "ocol": 5587,
      "Ġschool": 5588,
      ".}}<|": 5589,
      "3333": 5590,
      "Ġwindows": 5591,
      "ables": 5592,
      "Ġswitches": 5593,
      "pow": 5594,
      "Ġnotation": 5595,
      "compute": 5596,
      "Ġkil": 5597,
      "Ġpu": 5598,
      "sence": 5599,
      "Ġsec": 5600,
      "78": 5601,
      "good": 5602,
      "nangle": 5603,
      "Ġswe": 5604,
      "Ġpip": 5605,
      "Ġ112": 5606,
      "Ġadapt": 5607,
      "å¯¹": 5608,
      "Ġcars": 5609,
      "Ġchair": 5610,
      "Ġ1024": 5611,
      "Ġplot": 5612,
      "Ġ1001": 5613,
      "Ġcreating": 5614,
      "Ġdiscrepancy": 5615,
      "|}": 5616,
      "tic": 5617,
      "binary": 5618,
      "Ġspread": 5619,
      "201": 5620,
      "Ġsectors": 5621,
      "nsame": 5622,
      "ores": 5623,
      "ĠâĬ": 5624,
      "Ġincreased": 5625,
      "Ġion": 5626,
      "Ġpresence": 5627,
      "Ġlisted": 5628,
      "xyz": 5629,
      "{|": 5630,
      "ety": 5631,
      "Ġcopper": 5632,
      "Ġmoles": 5633,
      "94": 5634,
      ")//": 5635,
      "Ġreco": 5636,
      "both": 5637,
      "need": 5638,
      "lation": 5639,
      "Ġwest": 5640,
      "Ġ\\'+": 5641,
      "Ġimm": 5642,
      "1001": 5643,
      "èĢħ": 5644,
      "nimplementing": 5645,
      "hh": 5646,
      "çĽ": 5647,
      "Ġfem": 5648,
      "Ġhouses": 5649,
      "Ġgave": 5650,
      "schwarz": 5651,
      "Ġske": 5652,
      "idence": 5653,
      "Ġstops": 5654,
      "Ġreceive": 5655,
      "segments": 5656,
      "Ġexplicitly": 5657,
      "dimensional": 5658,
      "ndoes": 5659,
      "Ġcomposed": 5660,
      "Ġalgorithms": 5661,
      "connected": 5662,
      "Ġband": 5663,
      "Ġdag": 5664,
      "));": 5665,
      "Ġearth": 5666,
      "nneed": 5667,
      "Ġlexicographically": 5668,
      "04": 5669,
      "Ġci": 5670,
      "unction": 5671,
      "Ġ123": 5672,
      "Ġproteins": 5673,
      "Ġphysics": 5674,
      "au": 5675,
      "Ġ\\\\((-": 5676,
      "ulating": 5677,
      "Ġprices": 5678,
      "Ġparentheses": 5679,
      "ories": 5680,
      "ngcd": 5681,
      "vector": 5682,
      "Ġ998": 5683,
      "iliar": 5684,
      "divis": 5685,
      "Ġindividually": 5686,
      "Ġsignal": 5687,
      "Ġbirds": 5688,
      "})^{": 5689,
      "ndirect": 5690,
      "resh": 5691,
      "Ġfields": 5692,
      "Ġgirls": 5693,
      "æĸ¹": 5694,
      "73": 5695,
      "Ġbars": 5696,
      "Ġnear": 5697,
      "counted": 5698,
      "Ġcolinear": 5699,
      "Ġdog": 5700,
      "Ġcontributions": 5701,
      "Ġtuples": 5702,
      "æĪĸèĢħ": 5703,
      "room": 5704,
      "neg": 5705,
      "Ġlayers": 5706,
      "Ġcatal": 5707,
      "Ġbacteria": 5708,
      "aur": 5709,
      "mit": 5710,
      "Ġconstructed": 5711,
      "Ġfamiliar": 5712,
      "Ġexterior": 5713,
      "assuming": 5714,
      "separated": 5715,
      "74": 5716,
      "Ġstars": 5717,
      "Ġweak": 5718,
      "agn": 5719,
      "olumn": 5720,
      "Ġrearranging": 5721,
      "Ġbroken": 5722,
      "last": 5723,
      "Ġmor": 5724,
      "Ġoptimally": 5725,
      "11100": 5726,
      "[:": 5727,
      "bound": 5728,
      "Ġsil": 5729,
      "Ġbf": 5730,
      "Ġdna": 5731,
      "Ġsaying": 5732,
      "Ã¶": 5733,
      "Ġsn": 5734,
      "Ġmeets": 5735,
      "2014": 5736,
      "åº": 5737,
      "Ġbought": 5738,
      "liest": 5739,
      "Ġpix": 5740,
      "ngre": 5741,
      "Ġresources": 5742,
      "Ġmillion": 5743,
      "ka": 5744,
      "upied": 5745,
      "urb": 5746,
      "Ġoccupied": 5747,
      "Ġshares": 5748,
      "Ġviolates": 5749,
      "eration": 5750,
      "Ġrecogn": 5751,
      "Ġmed": 5752,
      "Ġtourn": 5753,
      "Ġoperators": 5754,
      "Ġkeys": 5755,
      "Ġdependencies": 5756,
      "})\\": 5757,
      "\\\\)-": 5758,
      "Ġchlor": 5759,
      "Ġscenarios": 5760,
      "....": 5761,
      "Ġreplaced": 5762,
      "Ġversion": 5763,
      "npositions": 5764,
      "some": 5765,
      "169": 5766,
      "Ġinsight": 5767,
      "Ġmultiplicative": 5768,
      "nour": 5769,
      "enomin": 5770,
      "Ġstam": 5771,
      "Ġchocol": 5772,
      "Ġ88": 5773,
      "Ġbring": 5774,
      "Ġmessages": 5775,
      ")^{-": 5776,
      "lie": 5777,
      "Ġbehind": 5778,
      "Ġlink": 5779,
      "Ġmiscalcul": 5780,
      "factor": 5781,
      "Ġextreme": 5782,
      "pc": 5783,
      "Ġrain": 5784,
      "Ġ512": 5785,
      "Ġaccel": 5786,
      "Ġgrams": 5787,
      "Ġplacements": 5788,
      "åĨ": 5789,
      "Ġpizz": 5790,
      "Ġconfirming": 5791,
      "Ġabsorb": 5792,
      "åĽ": 5793,
      "Ġadc": 5794,
      "ele": 5795,
      "Ġkin": 5796,
      "Ġconfident": 5797,
      "code": 5798,
      "Ġflag": 5799,
      "ashi": 5800,
      "Ġexpanding": 5801,
      "Ġdefault": 5802,
      "nboth": 5803,
      "Ġpointer": 5804,
      "),\\": 5805,
      "Ġresistance": 5806,
      "Ġpseudocode": 5807,
      "Ġcc": 5808,
      "}$.\\": 5809,
      "ping": 5810,
      "rid": 5811,
      "constraints": 5812,
      "por": 5813,
      "\\']\\": 5814,
      "Ġxyz": 5815,
      "Ġsuffic": 5816,
      "Ġ\\\\(|\\\\": 5817,
      "lope": 5818,
      "Ġdenoted": 5819,
      "Ġ76": 5820,
      "Ġperformance": 5821,
      "Ġrandomly": 5822,
      "Ġ\\'-": 5823,
      "Ġcontinues": 5824,
      "Ġlying": 5825,
      "Ġpow": 5826,
      "Ġnotes": 5827,
      "Ġheard": 5828,
      "Ġ\\'?": 5829,
      "Ġspaced": 5830,
      "Ġearliest": 5831,
      "Ġdraws": 5832,
      "nexpected": 5833,
      "çĦ¶åĲİ": 5834,
      "]$": 5835,
      "level": 5836,
      "128": 5837,
      "Ġ270": 5838,
      "Ġrewrite": 5839,
      "Ġao": 5840,
      "ists": 5841,
      "Ġ2015": 5842,
      "Ġcrosses": 5843,
      "Ġtouching": 5844,
      "Ġcycl": 5845,
      "Ġraised": 5846,
      "uits": 5847,
      "è¾": 5848,
      "Ġbur": 5849,
      "change": 5850,
      "2017": 5851,
      "Ġcontained": 5852,
      "Ġquantities": 5853,
      "wb": 5854,
      "Ġaction": 5855,
      "Ġbid": 5856,
      "\\'(": 5857,
      "Ġdev": 5858,
      "Ġthrow": 5859,
      "Ġeats": 5860,
      "Ġhandled": 5861,
      "Ġfruits": 5862,
      "Ġmechanisms": 5863,
      "inters": 5864,
      "Ġorange": 5865,
      "Ġrolling": 5866,
      "Ġwom": 5867,
      "--------": 5868,
      "string": 5869,
      "Ġski": 5870,
      "Ġrefers": 5871,
      "Ġbrackets": 5872,
      "nsolving": 5873,
      "Ġsimson": 5874,
      "version": 5875,
      "Ġbuys": 5876,
      "Ġknights": 5877,
      "\\\\_": 5878,
      "Ġquot": 5879,
      "Ġ2003": 5880,
      "fl": 5881,
      "Ġenz": 5882,
      "Ġsources": 5883,
      "kx": 5884,
      "nä½Ĩ": 5885,
      "Ġsens": 5886,
      "Ġfund": 5887,
      "Ġdescrib": 5888,
      "ahashi": 5889,
      "ha": 5890,
      "ĠĠĠĠĠ": 5891,
      "poth": 5892,
      "Ġteach": 5893,
      "353": 5894,
      "Ġdomino": 5895,
      ")-(": 5896,
      "nequation": 5897,
      "244": 5898,
      "æĢ": 5899,
      "match": 5900,
      "sm": 5901,
      "Ġhints": 5902,
      "Ġprim": 5903,
      "Ġcontinu": 5904,
      "intercept": 5905,
      "åĪĨ": 5906,
      "ninter": 5907,
      "Ġunknown": 5908,
      "high": 5909,
      "næĪĸèĢħ": 5910,
      "Ġknows": 5911,
      "ndirected": 5912,
      "bt": 5913,
      "Ġ73": 5914,
      "Ġnested": 5915,
      "Ġir": 5916,
      "Ġdem": 5917,
      "white": 5918,
      "Ġencounter": 5919,
      "Ġheapq": 5920,
      "Ġfoci": 5921,
      "Ġisotomic": 5922,
      "Ġ\\')": 5923,
      "nperfect": 5924,
      "Ġlights": 5925,
      "Ġdrug": 5926,
      "900": 5927,
      "but": 5928,
      "Ġunc": 5929,
      "Ġsomeone": 5930,
      "Ġplaying": 5931,
      "Ġlinearly": 5932,
      "enominator": 5933,
      "Ġgold": 5934,
      "Ġundirected": 5935,
      "Ġintermedi": 5936,
      "ĠâĪĪ": 5937,
      "Ġmachine": 5938,
      "Ġscalar": 5939,
      "false": 5940,
      "}(\\\\": 5941,
      "Ġtoken": 5942,
      "Ġclarify": 5943,
      "Ġsend": 5944,
      "stant": 5945,
      "Ġ2004": 5946,
      "Ġcry": 5947,
      "Ġcup": 5948,
      "aaa": 5949,
      "Ġace": 5950,
      "Ġconnectivity": 5951,
      "Ġhaven": 5952,
      "ntime": 5953,
      "versity": 5954,
      "Ġ62": 5955,
      "Ġpaired": 5956,
      "Ġ||": 5957,
      "Ġoctahedron": 5958,
      "Ġconflict": 5959,
      "Ġbreaks": 5960,
      "æĿ¥": 5961,
      "Ġoxy": 5962,
      "rot": 5963,
      "\\']": 5964,
      "Ġspot": 5965,
      "Ġnonzero": 5966,
      "tical": 5967,
      "Ġmonoch": 5968,
      "Ġiteratively": 5969,
      "Ġobjects": 5970,
      "Ġticket": 5971,
      "Ġptr": 5972,
      "Ġproving": 5973,
      "Ġleap": 5974,
      "undant": 5975,
      "Ġgravity": 5976,
      "Ġcnt": 5977,
      "nnecess": 5978,
      "Ġprojective": 5979,
      "Ġrepeatedly": 5980,
      "gg": 5981,
      "uces": 5982,
      "Ġ\\\\),\\": 5983,
      "Ġann": 5984,
      "Ġexcenter": 5985,
      "Ġ720": 5986,
      "Ġ92": 5987,
      "Ġapple": 5988,
      "neighbor": 5989,
      "Ġmagic": 5990,
      "!)": 5991,
      "Ġ000": 5992,
      "ourth": 5993,
      "Ġflower": 5994,
      "cho": 5995,
      "abs": 5996,
      "Ġearly": 5997,
      "Ġlittle": 5998,
      "Ġunnecess": 5999,
      "Ġdeck": 6000,
      "Ġdifferenti": 6001,
      "Ġplacement": 6002,
      "Ġmonochromatic": 6003,
      "Ġtried": 6004,
      "Ġcompet": 6005,
      "}{|": 6006,
      "Ġrates": 6007,
      "Ġrepresentations": 6008,
      "asha": 6009,
      "Ġwide": 6010,
      "stac": 6011,
      "Ġgenes": 6012,
      "igns": 6013,
      "Ġbricks": 6014,
      "Ġsimplest": 6015,
      "Ġspots": 6016,
      "Ġbuying": 6017,
      "Ġmerged": 6018,
      "Ġcookies": 6019,
      "Ġvaries": 6020,
      "Ġplayed": 6021,
      "ĠsinÎ¸": 6022,
      "Ġequivalence": 6023,
      "Ġ\\\\(-\\\\": 6024,
      "Ġtournament": 6025,
      "ĠÎµ": 6026,
      "overed": 6027,
      "ä¸Ń": 6028,
      "nsubtracting": 6029,
      "only": 6030,
      "digits": 6031,
      "Ġcutting": 6032,
      "jkstra": 6033,
      "nsequence": 6034,
      "Ġacd": 6035,
      "\\\\((": 6036,
      "Ġgover": 6037,
      "Ġsignificantly": 6038,
      "225": 6039,
      "71": 6040,
      "parent": 6041,
      "Ġfac": 6042,
      "\\'),": 6043,
      "\\\\)'": 6044,
      "Ġlear": 6045,
      "Ġ94": 6046,
      "Ġ74": 6047,
      "Ġcommun": 6048,
      "Ġmemoization": 6049,
      "Ġingredients": 6050,
      "Ġcapture": 6051,
      "Ġeaten": 6052,
      "Ġstays": 6053,
      "Ġprotein": 6054,
      "ler": 6055,
      "Ġcake": 6056,
      "Ġbed": 6057,
      "Ġcollection": 6058,
      "Ġmonot": 6059,
      "Ġbottles": 6060,
      "arcsin": 6061,
      "Ġmp": 6062,
      "Ġwatch": 6063,
      "Ġoutputs": 6064,
      "Ġballo": 6065,
      "Ġpd": 6066,
      "plac": 6067,
      "Ġperpendiculars": 6068,
      "Ġadditionally": 6069,
      "Ġdestro": 6070,
      "Ġfundament": 6071,
      "Ġorbit": 6072,
      "ulti": 6073,
      "ä¹Ł": 6074,
      "Ġinvert": 6075,
      "Ġ71": 6076,
      "Ġ135": 6077,
      "Ġoccurrence": 6078,
      "Ġparametric": 6079,
      "Ġpoll": 6080,
      "Ġbm": 6081,
      "Ġom": 6082,
      "Ġ\\\\).<|": 6083,
      ")]^": 6084,
      "Ġantib": 6085,
      "Ġextensions": 6086,
      "Ġvisits": 6087,
      "Ġdrop": 6088,
      "spective": 6089,
      "Ġak": 6090,
      "Ġhidden": 6091,
      "Ġsales": 6092,
      "Ġlanguage": 6093,
      "æł": 6094,
      "}\\\\]": 6095,
      "Ġoxygen": 6096,
      "sys": 6097,
      "}$\\": 6098,
      "Ġ2009": 6099,
      "ĠâĪ«": 6100,
      "Ġdiscard": 6101,
      "pairs": 6102,
      "Ġrac": 6103,
      "Ġcomputes": 6104,
      "Ġamounts": 6105,
      "Ġlamps": 6106,
      "edges": 6107,
      "Ġ130": 6108,
      "Ġpalindromic": 6109,
      "ncontin": 6110,
      "Ġbond": 6111,
      "Ġvill": 6112,
      "Ġ5000": 6113,
      "paring": 6114,
      "Ġfundamental": 6115,
      "010": 6116,
      "oa": 6117,
      "alf": 6118,
      "Ġpointers": 6119,
      "Ġ68": 6120,
      "Ġtooth": 6121,
      "Ġglass": 6122,
      "414": 6123,
      "ms": 6124,
      "Ġanna": 6125,
      "Ġkid": 6126,
      "Ġexplore": 6127,
      "bability": 6128,
      "Ġabe": 6129,
      "positive": 6130,
      "Ġeffective": 6131,
      "Ġinconsistent": 6132,
      "bu": 6133,
      "nresult": 6134,
      "Ġ(\\\\(": 6135,
      "Ġship": 6136,
      "Ġ69": 6137,
      "Ġ126": 6138,
      "ncan": 6139,
      "Ġparities": 6140,
      "vians": 6141,
      "æĹ": 6142,
      "Ġmanner": 6143,
      "cer": 6144,
      "Ġdijkstra": 6145,
      "npos": 6146,
      "nrearr": 6147,
      "without": 6148,
      "Ġfiles": 6149,
      "Ġ576": 6150,
      "Ġcevians": 6151,
      "direction": 6152,
      "Ġcot": 6153,
      "sets": 6154,
      "going": 6155,
      "Ġdevelopment": 6156,
      "Ġtell": 6157,
      "Ġnegatives": 6158,
      ",...,": 6159,
      "vious": 6160,
      "Ġtank": 6161,
      "Ġxz": 6162,
      "Ġfly": 6163,
      "Ġ\\\\)),": 6164,
      "Ġstable": 6165,
      "Ġmanipulate": 6166,
      "Ġunnecessary": 6167,
      "Ġvo": 6168,
      "()))\\": 6169,
      "Ġod": 6170,
      "iful": 6171,
      "lands": 6172,
      "Ġsitu": 6173,
      "Ġshapes": 6174,
      "Ġintended": 6175,
      "Ġfolded": 6176,
      "å¾": 6177,
      "Ġps": 6178,
      "there": 6179,
      "lesco": 6180,
      "Ġfactorize": 6181,
      "Ġtelesco": 6182,
      "more": 6183,
      "cont": 6184,
      "Ġimplic": 6185,
      "Ġoverflow": 6186,
      "Ġproduction": 6187,
      "Ġexcluded": 6188,
      "Ġwalls": 6189,
      "blue": 6190,
      "Ġhu": 6191,
      "ney": 6192,
      "Ġcurrently": 6193,
      "itely": 6194,
      "Ã¡": 6195,
      "Ġslight": 6196,
      "Ġdan": 6197,
      "Ġriddle": 6198,
      "Ġ2008": 6199,
      "target": 6200,
      "Ġii": 6201,
      "nnote": 6202,
      "agine": 6203,
      "Ġtranslation": 6204,
      "Ġtechnique": 6205,
      "regular": 6206,
      "isions": 6207,
      "Ġdevi": 6208,
      "Ġchanged": 6209,
      "Ġweighted": 6210,
      "Ġtoothp": 6211,
      "off": 6212,
      "Ġborder": 6213,
      "Ġlost": 6214,
      "Ġstage": 6215,
      "Ġaligned": 6216,
      "Ġ86": 6217,
      "Ġgalax": 6218,
      "sect": 6219,
      "Ġdoing": 6220,
      "post": 6221,
      "Ġ`(": 6222,
      "bining": 6223,
      "2009": 6224,
      "Ġcandy": 6225,
      "Ġinsertions": 6226,
      "Ġrepet": 6227,
      "cp": 6228,
      "action": 6229,
      "Ġobstac": 6230,
      "Ġapproximate": 6231,
      "Ġsubtrees": 6232,
      "!\\": 6233,
      "Ġfuel": 6234,
      "Ġyards": 6235,
      "Ġaddress": 6236,
      "Ġassumed": 6237,
      "Ġreplacing": 6238,
      "Ġfalls": 6239,
      "Ġparameterize": 6240,
      "Ġ102": 6241,
      "Ġstronger": 6242,
      "Ġcongruence": 6243,
      "Ġenvironmental": 6244,
      "down": 6245,
      "amine": 6246,
      "ilton": 6247,
      "Ġmultis": 6248,
      "Ġclean": 6249,
      "Ġeasily": 6250,
      "Ġpole": 6251,
      "Ġtrait": 6252,
      "Ġbacktracking": 6253,
      "Ġpalindromes": 6254,
      "Ġcourse": 6255,
      "needed": 6256,
      "Ġsheet": 6257,
      "Ġscaled": 6258,
      "Ġnit": 6259,
      "Ġdow": 6260,
      "quer": 6261,
      "Ġonline": 6262,
      "istics": 6263,
      "Ġbutton": 6264,
      "cluding": 6265,
      "Ġchessboard": 6266,
      "Ġtook": 6267,
      "requency": 6268,
      "éĹ´": 6269,
      "Ġscatter": 6270,
      "Ġentry": 6271,
      "Ġtransformed": 6272,
      "abb": 6273,
      "Ġwouldn": 6274,
      "Ġyields": 6275,
      "multiply": 6276,
      "Ġsticks": 6277,
      "Ġroute": 6278,
      "ncy": 6279,
      "Ġbran": 6280,
      "Ġbottle": 6281,
      "Ġupdating": 6282,
      "Ġmonths": 6283,
      "Ġuniformly": 6284,
      "noperation": 6285,
      "ncol": 6286,
      "ae": 6287,
      "Ġplat": 6288,
      "Ġclub": 6289,
      "Ġturning": 6290,
      "ndigit": 6291,
      "Ġquotient": 6292,
      "kill": 6293,
      "Ġosc": 6294,
      "Ġ79": 6295,
      "235": 6296,
      "Ġeasy": 6297,
      "aped": 6298,
      "angement": 6299,
      "Ġ800": 6300,
      "Ġobvious": 6301,
      "Ġspl": 6302,
      "Ġpqr": 6303,
      "Ġbou": 6304,
      "Ġow": 6305,
      "Ġupwards": 6306,
      "2010": 6307,
      "Ġmovements": 6308,
      "(|": 6309,
      "Ġcrossing": 6310,
      "Ġdt": 6311,
      "ouch": 6312,
      "Ġconstructing": 6313,
      "09": 6314,
      "Ġhi": 6315,
      "istry": 6316,
      "Ġmatched": 6317,
      "Ġwalks": 6318,
      "ç§": 6319,
      "Ġthous": 6320,
      "Ġspeeds": 6321,
      "Ġmu": 6322,
      "Ġmst": 6323,
      "Ġperspective": 6324,
      "Ġdead": 6325,
      "Ġovercom": 6326,
      "2020": 6327,
      "linewidth": 6328,
      "Ġaffected": 6329,
      "Ġspaceship": 6330,
      "esting": 6331,
      "Ġmind": 6332,
      "ĠâĪª": 6333,
      "æ³": 6334,
      "Ġport": 6335,
      "Ġrather": 6336,
      "Ġdecided": 6337,
      "Ġdestination": 6338,
      "Ġdefining": 6339,
      "Ġtickets": 6340,
      "Ġschedule": 6341,
      "Ġexperiment": 6342,
      "ngreat": 6343,
      "Ġdoor": 6344,
      "mathcal": 6345,
      "Ġstreet": 6346,
      "Ġhamilton": 6347,
      "([": 6348,
      "af": 6349,
      "iling": 6350,
      "Ġ2500": 6351,
      "Ġbuildings": 6352,
      "Ġobtain": 6353,
      "ä½¿": 6354,
      "Ġtoothpicks": 6355,
      "}]": 6356,
      "Ġcups": 6357,
      "Ġimprove": 6358,
      "iers": 6359,
      "Ġpan": 6360,
      "ived": 6361,
      "---": 6362,
      "Ġderivatives": 6363,
      "nupon": 6364,
      "ndifference": 6365,
      "nsqrt": 6366,
      "ades": 6367,
      "Ġfigures": 6368,
      "Ġsixth": 6369,
      "Ġhappiness": 6370,
      "hole": 6371,
      "Ġantibi": 6372,
      "mut": 6373,
      "rase": 6374,
      "vent": 6375,
      "Ġgh": 6376,
      "image": 6377,
      "Ġdefect": 6378,
      "Ġsurv": 6379,
      "âīĪ": 6380,
      "Ġusage": 6381,
      "Ġ\\'.": 6382,
      "Ġforest": 6383,
      "ov": 6384,
      "oph": 6385,
      "print": 6386,
      "Ñĭ": 6387,
      "Ġgirl": 6388,
      "åĩ": 6389,
      "erator": 6390,
      "Ġ2002": 6391,
      "Ġ?": 6392,
      "Ġcha": 6393,
      "dc": 6394,
      "\\\\}\\\\),": 6395,
      "Ġcomputations": 6396,
      "Ġtails": 6397,
      "Ġsaid": 6398,
      "Ġhamiltonian": 6399,
      "Ġreference": 6400,
      "Ġharmonic": 6401,
      "æ¯ı": 6402,
      "Ġcryst": 6403,
      "Ġmatters": 6404,
      "Ġ2012": 6405,
      "Ġcows": 6406,
      "Ġnic": 6407,
      "oded": 6408,
      "Ġglu": 6409,
      "Ġclock": 6410,
      "tes": 6411,
      "reak": 6412,
      "Ġchance": 6413,
      "Ġsoldi": 6414,
      "ncolumn": 6415,
      "come": 6416,
      "kahashi": 6417,
      "Ġcam": 6418,
      "Ġfeature": 6419,
      "Ġblocked": 6420,
      "Ġovercomplic": 6421,
      "Ġhist": 6422,
      "Ġapb": 6423,
      "indow": 6424,
      "1990": 6425,
      "Ġislands": 6426,
      "Ġprop": 6427,
      "Ġ450": 6428,
      "Ġcoincides": 6429,
      "hattan": 6430,
      "radi": 6431,
      "Ġaccurately": 6432,
      "$.'},": 6433,
      "Ġturned": 6434,
      "each": 6435,
      "ites": 6436,
      "Ġconcentrations": 6437,
      "Ġsemicircles": 6438,
      "Ġunf": 6439,
      "nnum": 6440,
      "Ġoperator": 6441,
      "Ġengine": 6442,
      "Ġflight": 6443,
      "Ġcounterclockwise": 6444,
      "Ġlocations": 6445,
      "hib": 6446,
      "Ġwar": 6447,
      "Ġpredict": 6448,
      "Ġenum": 6449,
      "}}\\\\).": 6450,
      "Ġgrouping": 6451,
      "posed": 6452,
      "Ġmutations": 6453,
      "éĩı": 6454,
      "]^": 6455,
      "Ġice": 6456,
      "Ġatm": 6457,
      "Ġstarted": 6458,
      ")^{\\\\": 6459,
      "Ġintermediate": 6460,
      "Ġoscill": 6461,
      "dis": 6462,
      "Ġferm": 6463,
      "Ġfavorite": 6464,
      "æ³ķ": 6465,
      "Ġground": 6466,
      "Ġfactoring": 6467,
      "Ġbounding": 6468,
      "Ġshifting": 6469,
      "(),": 6470,
      "Ġaspect": 6471,
      "clear": 6472,
      "Ġtermin": 6473,
      "Ġmodified": 6474,
      "Ġpositioned": 6475,
      "Ġflipped": 6476,
      "62": 6477,
      "å½": 6478,
      "Ġthick": 6479,
      "Ġexponentiation": 6480,
      "Ġconjugates": 6481,
      "limit": 6482,
      "Ġâľ": 6483,
      "Ġ93": 6484,
      "Ġmonsters": 6485,
      "è®¡": 6486,
      ".**\\": 6487,
      "unique": 6488,
      "}[": 6489,
      "eness": 6490,
      "Ġlag": 6491,
      "Ġbrother": 6492,
      "ently": 6493,
      "Ġceva": 6494,
      "Ġcommand": 6495,
      "]=\\'": 6496,
      "Ġpacks": 6497,
      "]\\\\),": 6498,
      "Ġconsideration": 6499,
      "Ġjack": 6500,
      "Ġ2014": 6501,
      "Ġuns": 6502,
      "Ġoffer": 6503,
      "Ġ\\\\)**\\": 6504,
      "Ġimposes": 6505,
      "Ġreaching": 6506,
      "Ġfish": 6507,
      "Ġglo": 6508,
      "Ġovercomplicating": 6509,
      "ees": 6510,
      "Ġluck": 6511,
      "Ġgall": 6512,
      "dec": 6513,
      "Ġinvest": 6514,
      "Ġclust": 6515,
      "Ġguarantee": 6516,
      "è®¸": 6517,
      "adjac": 6518,
      "èĻ": 6519,
      "Ġaim": 6520,
      "Ġvac": 6521,
      "Ġview": 6522,
      "Ġimmediate": 6523,
      "Ġmechanism": 6524,
      "Ġpassengers": 6525,
      "ino": 6526,
      "Ġscre": 6527,
      "Ġmot": 6528,
      "Ġvan": 6529,
      "Ġfeel": 6530,
      "cket": 6531,
      "èĢĥ": 6532,
      "lar": 6533,
      "Ġhits": 6534,
      "olas": 6535,
      "Ġships": 6536,
      "constant": 6537,
      ")^(": 6538,
      "Ġexistence": 6539,
      "Ġpounds": 6540,
      "arctan": 6541,
      "can": 6542,
      "æŁ": 6543,
      "Ġoun": 6544,
      "Ġiterations": 6545,
      "Ġdestroy": 6546,
      "lim": 6547,
      "vmatrix": 6548,
      "inc": 6549,
      "Ġtrie": 6550,
      "}}}": 6551,
      "Ġconverting": 6552,
      "Ġisogonal": 6553,
      "Ġexcess": 6554,
      "Ġtrips": 6555,
      "Ġrequirement": 6556,
      "Ġut": 6557,
      "Ġemployee": 6558,
      "`)": 6559,
      "Ġhasn": 6560,
      "Ġprocessed": 6561,
      "velope": 6562,
      "Ġactivity": 6563,
      "Ġtheoretical": 6564,
      "Ġshifted": 6565,
      "sw": 6566,
      "Ġcatch": 6567,
      "Ġclim": 6568,
      "Ġsound": 6569,
      "Ġcde": 6570,
      "Ġmus": 6571,
      "Ġrelat": 6572,
      "Ġ192": 6573,
      "Ġinterested": 6574,
      "Ġpriorit": 6575,
      "Ġdwar": 6576,
      "verage": 6577,
      "Ġacb": 6578,
      "ä¹Łè®¸": 6579,
      "enced": 6580,
      "Ġgf": 6581,
      "Ġsto": 6582,
      "æĹ¶": 6583,
      "ider": 6584,
      "Ġrs": 6585,
      "Ġcarl": 6586,
      "Ġpf": 6587,
      "Ġ(|": 6588,
      "192": 6589,
      "}.\\\\]\\": 6590,
      "Ġalgebraic": 6591,
      "dt": 6592,
      "examine": 6593,
      "Ġsymmet": 6594,
      "nonly": 6595,
      "tg": 6596,
      "Ġdoors": 6597,
      "Ġduplicate": 6598,
      "Ġfamily": 6599,
      "](": 6600,
      "aq": 6601,
      "Ġnan": 6602,
      "adder": 6603,
      "Ġdetails": 6604,
      "aim": 6605,
      "è§": 6606,
      "Ġwhenever": 6607,
      "Ġmanhattan": 6608,
      "244353": 6609,
      "orse": 6610,
      "units": 6611,
      "ext": 6612,
      "Ġtangled": 6613,
      "))=": 6614,
      "Ġrecalcul": 6615,
      "npair": 6616,
      "Ġflat": 6617,
      "Ġorthogonal": 6618,
      "Ġnuclear": 6619,
      "Ġplatform": 6620,
      "Ġsplits": 6621,
      "Ġnicke": 6622,
      "èĻĳ": 6623,
      "Ġmr": 6624,
      "Ġmiscounted": 6625,
      "2004": 6626,
      "Ġaffecting": 6627,
      "Ġmerging": 6628,
      "Ġdynamics": 6629,
      "ĠÎ´h": 6630,
      "Ġbasic": 6631,
      "ÐµÐ": 6632,
      "Ġlamp": 6633,
      "arts": 6634,
      "ably": 6635,
      "isited": 6636,
      "Ġliter": 6637,
      "Ġanimals": 6638,
      "uition": 6639,
      "ç®": 6640,
      "Ġhandsh": 6641,
      "ience": 6642,
      "Ġfile": 6643,
      "Ġcop": 6644,
      "105": 6645,
      "Ġdistinguish": 6646,
      "nä½Ĩæĺ¯": 6647,
      "radii": 6648,
      "èĢĥèĻĳ": 6649,
      "abab": 6650,
      "ncos": 6651,
      "though": 6652,
      "rier": 6653,
      "____": 6654,
      "Ġpassword": 6655,
      "net": 6656,
      "Ġaz": 6657,
      "Ġ\\\\}": 6658,
      "Ġdiscount": 6659,
      "\\\\}\\\\)": 6660,
      "vertex": 6661,
      "Ġoverkill": 6662,
      "conduct": 6663,
      "energy": 6664,
      "Ġcomparison": 6665,
      "Ġ~": 6666,
      "Ġenh": 6667,
      "Ġpartitions": 6668,
      "Ġinvari": 6669,
      "Ġsurround": 6670,
      "Ġbirth": 6671,
      "Ġsymbol": 6672,
      "nvector": 6673,
      "Ġradiation": 6674,
      ")!}": 6675,
      "Ġobserved": 6676,
      "Ġneutron": 6677,
      "ited": 6678,
      "Ġquotes": 6679,
      "ĠÎ¾": 6680,
      "Ġextending": 6681,
      "Ġhuman": 6682,
      "Ġslightly": 6683,
      "Ġsymmetries": 6684,
      "Ġinjective": 6685,
      "Ġeating": 6686,
      "ndenominator": 6687,
      "Ġsuperconduct": 6688,
      "hour": 6689,
      "çİ": 6690,
      "Ġ\\\\)?": 6691,
      "Ġchains": 6692,
      "Ġmirko": 6693,
      "initialization": 6694,
      "Ġbeats": 6695,
      "nah": 6696,
      "Ġdistributions": 6697,
      "njust": 6698,
      "Ġalternatively": 6699,
      "Ġoxid": 6700,
      "Ġsituation": 6701,
      "Ġnth": 6702,
      "icted": 6703,
      "Ġ{}\\": 6704,
      "Ġflights": 6705,
      "Ġpropag": 6706,
      "Ġmodule": 6707,
      "Ġvisco": 6708,
      "Ġarrive": 6709,
      "://": 6710,
      "big": 6711,
      "tu": 6712,
      "rest": 6713,
      "Ġevenly": 6714,
      "Ġstanding": 6715,
      "Ġtuple": 6716,
      "Ġled": 6717,
      "Ġchecked": 6718,
      "Ġorthic": 6719,
      "Ġreversing": 6720,
      "Ġshots": 6721,
      "Ġintuition": 6722,
      "Ġenvelope": 6723,
      "Ġbitwise": 6724,
      "Ġsubtraction": 6725,
      "Ġrestaur": 6726,
      "ĠĠĠĠĠĠĠĠĠĠĠĠĠĠĠĠ": 6727,
      "Ġmultiset": 6728,
      "Ð²": 6729,
      "Ġ729": 6730,
      "Ġkeeps": 6731,
      "Ġcreated": 6732,
      "Ġdifficulty": 6733,
      "Ġconflicts": 6734,
      "è¯ķ": 6735,
      "processing": 6736,
      "Ġlatin": 6737,
      "Ġattached": 6738,
      "Ġjour": 6739,
      "Ġindicate": 6740,
      "|)": 6741,
      "Ġmx": 6742,
      "Ġbeam": 6743,
      "ndist": 6744,
      "Ġseeing": 6745,
      "Ġ2013": 6746,
      "Ġprefixes": 6747,
      "Ġinstant": 6748,
      "sk": 6749,
      "Ġaff": 6750,
      "Ġignore": 6751,
      "remaining": 6752,
      "oods": 6753,
      "Ġjan": 6754,
      "Ġavo": 6755,
      "Ġrewritten": 6756,
      "Ġur": 6757,
      "Ġcomputer": 6758,
      "odes": 6759,
      "Ġseparation": 6760,
      "Ġsufficiently": 6761,
      "Ġjoining": 6762,
      "irect": 6763,
      "Ġladder": 6764,
      "Ġsatur": 6765,
      "ncomparing": 6766,
      "Ġbouqu": 6767,
      "Ġcats": 6768,
      "Ġtowns": 6769,
      "Ġreconstruct": 6770,
      "nfreq": 6771,
      "ottom": 6772,
      "Ġ\\\\((\\\\": 6773,
      "olds": 6774,
      "Ġintouch": 6775,
      "Ġdifferential": 6776,
      ")):\\": 6777,
      "scribed": 6778,
      "''(": 6779,
      "Ġpast": 6780,
      "ogene": 6781,
      "ĠâĢĺ": 6782,
      "ä¸Ģä¸ª": 6783,
      "gers": 6784,
      "ttps": 6785,
      "Ġoh": 6786,
      "Ġinsertion": 6787,
      "Ġphoto": 6788,
      "adjacent": 6789,
      "åĢ": 6790,
      "Ġaj": 6791,
      "Ġdate": 6792,
      "changed": 6793,
      "noriginal": 6794,
      "`.": 6795,
      "reach": 6796,
      "hedra": 6797,
      "Ġcurv": 6798,
      "Ġviscosity": 6799,
      "Ġbackwards": 6800,
      "Ġdisplay": 6801,
      ")**:": 6802,
      "wik": 6803,
      "Ġbelie": 6804,
      "Ġgray": 6805,
      "})}{": 6806,
      "Ġcalls": 6807,
      "Ġinteraction": 6808,
      "Ġdiameters": 6809,
      "ulated": 6810,
      "Ġoutgoing": 6811,
      "Ġfolding": 6812,
      "answer": 6813,
      "Ġ1989": 6814,
      "circles": 6815,
      "Ġmagnitudes": 6816,
      "Ġopening": 6817,
      "è¿ĩ": 6818,
      "Ġincoming": 6819,
      "back": 6820,
      "rate": 6821,
      "08": 6822,
      "mers": 6823,
      "Ġalloc": 6824,
      "2003": 6825,
      "indexed": 6826,
      "Ġfruit": 6827,
      "space": 6828,
      "ina": 6829,
      "than": 6830,
      "Ġcriter": 6831,
      "Ġcategory": 6832,
      "æīĢä»¥": 6833,
      "ache": 6834,
      "ucing": 6835,
      "Ġimplying": 6836,
      "Ġremovals": 6837,
      "Ġconsonant": 6838,
      "Ġactions": 6839,
      "Ġ324": 6840,
      "Ġtakahashi": 6841,
      "Ġsquaring": 6842,
      "Ġdeparture": 6843,
      "Ġscattering": 6844,
      "rd": 6845,
      "Ġsna": 6846,
      "namic": 6847,
      "Ġwavelength": 6848,
      "three": 6849,
      "Ġtetrahedrons": 6850,
      "Ġviolating": 6851,
      "bre": 6852,
      "Ġwast": 6853,
      "Ġdise": 6854,
      "Ġspells": 6855,
      "Ġupdates": 6856,
      "niterate": 6857,
      "93": 6858,
      "Ġnp": 6859,
      "Ġ\\\\([-": 6860,
      "nies": 6861,
      "Ġmeasured": 6862,
      "Ġattacks": 6863,
      "nfourth": 6864,
      "yd": 6865,
      "Ġcx": 6866,
      "ayer": 6867,
      "Ġlens": 6868,
      "Ġaligns": 6869,
      "],\\": 6870,
      "Ġcastle": 6871,
      "hash": 6872,
      "Ġted": 6873,
      "Ġ\\\\)?\\": 6874,
      "Ġkill": 6875,
      "Ġ{\\'": 6876,
      "Ġtells": 6877,
      "Ġhappy": 6878,
      "cycles": 6879,
      "Ġsensit": 6880,
      "Ġbern": 6881,
      "Ġmixt": 6882,
      "Ġbridge": 6883,
      "infin": 6884,
      "Ġstability": 6885,
      "Ġrout": 6886,
      "Ġindirect": 6887,
      "Ġmonday": 6888,
      "emptyset": 6889,
      "nmultiplying": 6890,
      "Ġfrogs": 6891,
      "lled": 6892,
      "Ġ-âĪļ": 6893,
      "stack": 6894,
      "Ġconversion": 6895,
      "Ġlose": 6896,
      "Ġmov": 6897,
      "Ġaccounts": 6898,
      "https": 6899,
      "Ġideal": 6900,
      "Ġfeed": 6901,
      "Ġwrap": 6902,
      "Ġcompound": 6903,
      "Ġarguments": 6904,
      "}+\\\\": 6905,
      "imitive": 6906,
      "Ġflex": 6907,
      "original": 6908,
      "Ġads": 6909,
      "2008": 6910,
      "Ġbags": 6911,
      "Ġdefaultdict": 6912,
      "Ġchemistry": 6913,
      "Ġdeep": 6914,
      "unch": 6915,
      "nco": 6916,
      "Ġrooted": 6917,
      "Ġcurves": 6918,
      "Ġenters": 6919,
      "Ġadditions": 6920,
      "oh": 6921,
      "Ġcit": 6922,
      "Ġisland": 6923,
      "Ġelectric": 6924,
      "wiki": 6925,
      "cross": 6926,
      "ality": 6927,
      "ared": 6928,
      "Ġcheap": 6929,
      "Ġsalary": 6930,
      "Ġ\\'*\\'": 6931,
      "]\\\\)": 6932,
      "iors": 6933,
      "Ġ.\\": 6934,
      "Ġdeal": 6935,
      "Ġalmost": 6936,
      "Ġtriang": 6937,
      "}}.\\": 6938,
      "Ġcharacteristic": 6939,
      "Ġelimination": 6940,
      "Ġapplications": 6941,
      "cf": 6942,
      "ww": 6943,
      "Ġranks": 6944,
      "Ġvieta": 6945,
      "576": 6946,
      "parts": 6947,
      "Ġrecalculate": 6948,
      "cest": 6949,
      "Ġmim": 6950,
      "olves": 6951,
      "108": 6952,
      "Ġprimitive": 6953,
      "2007": 6954,
      "Ġgene": 6955,
      "Ġ343": 6956,
      "åı¯èĥ½ä¸į": 6957,
      "leep": 6958,
      "icting": 6959,
      "plete": 6960,
      "Ġdeficit": 6961,
      "shaped": 6962,
      "Ġcourses": 6963,
      "opt": 6964,
      "Ġmm": 6965,
      "Ġhint": 6966,
      "Ġfermat": 6967,
      "Ġcurvature": 6968,
      "aligned": 6969,
      "Ġtour": 6970,
      "Ġdur": 6971,
      "Ġconduct": 6972,
      "roups": 6973,
      "Ġminor": 6974,
      "Ġinten": 6975,
      "ninitially": 6976,
      "Ġmodify": 6977,
      "Ġexploited": 6978,
      "$?\\": 6979,
      "Ġ\\\\)).\\": 6980,
      "adec": 6981,
      "Ġbisects": 6982,
      "Ġprojects": 6983,
      "Ġreceived": 6984,
      "Ġarrives": 6985,
      "Ġberta": 6986,
      "Ġemployees": 6987,
      "}^\\\\": 6988,
      "Î²": 6989,
      "Ġexc": 6990,
      "Ġ87": 6991,
      "Ġenergies": 6992,
      "ncombining": 6993,
      "Ġlagrange": 6994,
      "Ġscreen": 6995,
      "]+": 6996,
      "Ġok": 6997,
      "Ġmc": 6998,
      "Ġlap": 6999,
      "ofproblem": 7000,
      "artofproblem": 7001,
      "Ġ\\\\).'},": 7002,
      "Ġfrid": 7003,
      "åĢ¼": 7004,
      "adecimal": 7005,
      "artofproblemsolving": 7006,
      "320": 7007,
      "Î³": 7008,
      "Ġstripe": 7009,
      "far": 7010,
      "Ġ\\\\))": 7011,
      "atory": 7012,
      "Ġswapped": 7013,
      "Ġconcave": 7014,
      "Ġtraveled": 7015,
      "å®ĥ": 7016,
      "fety": 7017,
      "¦Ĥ": 7018,
      "Ġreset": 7019,
      "Ġstress": 7020,
      "nover": 7021,
      "}\\\\).<|": 7022,
      "Ġpixels": 7023,
      "1010": 7024,
      "Ġfilter": 7025,
      "Ġprecomputed": 7026,
      "Ġquarks": 7027,
      "Ġounces": 7028,
      "care": 7029,
      "Ġti": 7030,
      "Ġancest": 7031,
      "Ġ2011": 7032,
      "Ġ168": 7033,
      "ogeneous": 7034,
      "Ġlis": 7035,
      "Ġenem": 7036,
      "Ġimmune": 7037,
      "ndigits": 7038,
      "Ġ82": 7039,
      "Ġ100000": 7040,
      "Ġwaiting": 7041,
      "Ġvariation": 7042,
      "è¡¨": 7043,
      "Ġdeletions": 7044,
      "agnetic": 7045,
      "remove": 7046,
      "Ġintercept": 7047,
      "php": 7048,
      "288": 7049,
      "turb": 7050,
      "Î¾": 7051,
      "ä¼": 7052,
      "artic": 7053,
      "Ġ243": 7054,
      "Ġbitmask": 7055,
      "Ġjoh": 7056,
      "Ġbeautiful": 7057,
      "Ġ998244353": 7058,
      "]]\\": 7059,
      "mat": 7060,
      "ups": 7061,
      "Ġdots": 7062,
      "sete": 7063,
      "Ġsun": 7064,
      "unc": 7065,
      "Ġseek": 7066,
      "Ġdenotes": 7067,
      "trivial": 7068,
      "æĪĳåı¯ä»¥": 7069,
      "seteq": 7070,
      "Ġdive": 7071,
      "puting": 7072,
      "Ġflaw": 7073,
      "Ġhexadecimal": 7074,
      "æŀ": 7075,
      "substit": 7076,
      "sorting": 7077,
      "Ġanalyzing": 7078,
      "Ġmit": 7079,
      "Ġvir": 7080,
      "}},": 7081,
      "Ġproportion": 7082,
      "|^{": 7083,
      "Ġcountry": 7084,
      "Ġproven": 7085,
      "Ġbrick": 7086,
      "})}": 7087,
      "ĠâĪĳ": 7088,
      "Ġstores": 7089,
      "Ġrestrictive": 7090,
      ",...\\": 7091,
      "Ġproduced": 7092,
      "arccos": 7093,
      "lic": 7094,
      "Ġbonds": 7095,
      "ths": 7096,
      "Ġ2007": 7097,
      "Ġdecrement": 7098,
      "mainder": 7099,
      "splitlines": 7100,
      "Ġlosing": 7101,
      "Ġdecomposition": 7102,
      "Ġpin": 7103,
      "Ġmouse": 7104,
      "align": 7105,
      "Ġmultipl": 7106,
      "Ġhamming": 7107,
      "Ġsemiperimeter": 7108,
      "Ġris": 7109,
      "Ġmodulus": 7110,
      "Ġve": 7111,
      "Ġspiral": 7112,
      "Ġimages": 7113,
      "Ġtypo": 7114,
      "Ġsimplification": 7115,
      "Ġtargets": 7116,
      "Ġdishes": 7117,
      "Ġcompanies": 7118,
      "ao": 7119,
      "Ġter": 7120,
      "Ġpicking": 7121,
      "Ġequalities": 7122,
      "Ġhexagons": 7123,
      "Ġfails": 7124,
      "Ġviolate": 7125,
      "Ġhc": 7126,
      "Ġmel": 7127,
      "Ġbody": 7128,
      "poly": 7129,
      "rypt": 7130,
      "numbers": 7131,
      "Ġreflected": 7132,
      "balance": 7133,
      ")$$\\": 7134,
      "pair": 7135,
      "inch": 7136,
      "Ġtables": 7137,
      "Ġade": 7138,
      "Ġchromatic": 7139,
      "unctions": 7140,
      "weight": 7141,
      "Ġconfusion": 7142,
      "Ġhealthcare": 7143,
      "Ġconsonants": 7144,
      "reshold": 7145,
      "Ġtraits": 7146,
      "Ġavoiding": 7147,
      ")=(": 7148,
      "Ġbdc": 7149,
      "nfinal": 7150,
      "ctg": 7151,
      "Ġyen": 7152,
      "head": 7153,
      "Ġupdated": 7154,
      "Ġsurjective": 7155,
      "%\\": 7156,
      "å¦Ĥ": 7157,
      "icles": 7158,
      "Ġselling": 7159,
      "Ġpurchase": 7160,
      "Ġfemale": 7161,
      "ires": 7162,
      "100000": 7163,
      "Ġclaim": 7164,
      "Ġmathematics": 7165,
      "Ġsuffice": 7166,
      "Ġprioritize": 7167,
      "Ġindist": 7168,
      "Ġcentroids": 7169,
      "Ġay": 7170,
      "1100": 7171,
      "Ġdense": 7172,
      "Ġtele": 7173,
      "diagonal": 7174,
      "Ġadjusting": 7175,
      "Ġskill": 7176,
      "query": 7177,
      "block": 7178,
      "Ġcodes": 7179,
      "Ġmiss": 7180,
      "Ġpillar": 7181,
      "$)\\": 7182,
      "210": 7183,
      "Ġdilation": 7184,
      "Ġmeter": 7185,
      "Ġinserting": 7186,
      "729": 7187,
      "]-": 7188,
      "ker": 7189,
      "Ã©": 7190,
      "Ġnice": 7191,
      "select": 7192,
      "Ġlever": 7193,
      "aken": 7194,
      "Ġcentimeters": 7195,
      "bits": 7196,
      "dir": 7197,
      "115": 7198,
      "Ġsafety": 7199,
      "Ġtechn": 7200,
      "åĮ": 7201,
      "Ġpul": 7202,
      "ulf": 7203,
      "nmove": 7204,
      "}}\\\\),": 7205,
      "Ġnonnegative": 7206,
      "Ġphotos": 7207,
      "Ġlucky": 7208,
      "Ġcircumscribed": 7209,
      "Ġdesigned": 7210,
      "letter": 7211,
      "Ġpopulations": 7212,
      "oks": 7213,
      "Ġaw": 7214,
      "Ġlikes": 7215,
      "pie": 7216,
      "Ġtail": 7217,
      "Ġshuff": 7218,
      "ntry": 7219,
      "Ġ1000000000": 7220,
      "Ġplanets": 7221,
      "Ġconstrained": 7222,
      "interpre": 7223,
      "Ġcollisions": 7224,
      "Ġcoupon": 7225,
      "Ġchocolate": 7226,
      "((-": 7227,
      "yst": 7228,
      "Ġobservations": 7229,
      "Ġmonotonic": 7230,
      "Ġfloors": 7231,
      "after": 7232,
      "Ġalex": 7233,
      "Ġcad": 7234,
      "Ġsup": 7235,
      "2015": 7236,
      "ieve": 7237,
      "Ġresem": 7238,
      "Ġther": 7239,
      "Ġbes": 7240,
      "Ġunclear": 7241,
      "Ġobserve": 7242,
      "Ġpizza": 7243,
      ".$": 7244,
      "Ġpad": 7245,
      "102": 7246,
      "acks": 7247,
      "Ġrounded": 7248,
      "Ġwarri": 7249,
      "æİ": 7250,
      "Ġsock": 7251,
      "Ġendpoint": 7252,
      "moves": 7253,
      "Ġbelieve": 7254,
      "Ġdogs": 7255,
      "Ġpurpose": 7256,
      "Ġsentence": 7257,
      "nindex": 7258,
      "ä½¿çĶ¨": 7259,
      "<<": 7260,
      "Ġbor": 7261,
      "Ġbic": 7262,
      "Ġ2001": 7263,
      "Ġexpensive": 7264,
      "Ġdescribe": 7265,
      "Ġdrive": 7266,
      "Ġsoldiers": 7267,
      "\\\\\\\\": 7268,
      "enue": 7269,
      "Ġcopy": 7270,
      "}}\\\\)": 7271,
      "Ġadjustment": 7272,
      "ä»¬": 7273,
      "real": 7274,
      "orph": 7275,
      "oud": 7276,
      "nslope": 7277,
      "Ġadb": 7278,
      "Ġpaid": 7279,
      "Ġ|-": 7280,
      "igen": 7281,
      "720": 7282,
      "multi": 7283,
      "palindrom": 7284,
      "Ġcomplicates": 7285,
      "undy": 7286,
      "294": 7287,
      "Ġtie": 7288,
      "Ġnm": 7289,
      "rectangle": 7290,
      "2018": 7291,
      "998": 7292,
      "Ġsuggesting": 7293,
      "åĲĳ": 7294,
      "Ġenvironments": 7295,
      "tem": 7296,
      "allow": 7297,
      "Ġgrids": 7298,
      "Ġinternally": 7299,
      "å¯¹äºİ": 7300,
      "!(": 7301,
      "ique": 7302,
      "æŃ": 7303,
      "npath": 7304,
      "Ġcompleted": 7305,
      "Ġskips": 7306,
      "Ġtelescoping": 7307,
      "`),": 7308,
      "raft": 7309,
      "nav": 7310,
      "Ġstands": 7311,
      "choice": 7312,
      "bcd": 7313,
      "hs": 7314,
      "Ġ}\\": 7315,
      "Ġproblematic": 7316,
      "Ġadsor": 7317,
      "alty": 7318,
      "}}\\\\).\\": 7319,
      "ock": 7320,
      "Ġcharacteristics": 7321,
      "Ġcapacities": 7322,
      "Ġroughly": 7323,
      "Ġjourney": 7324,
      "Ġ^": 7325,
      "ony": 7326,
      "Ġdiffers": 7327,
      "lig": 7328,
      "Ġclassic": 7329,
      "Ġprogressions": 7330,
      "Ġreplacement": 7331,
      "Ġstrongly": 7332,
      "pothes": 7333,
      "cr": 7334,
      "date": 7335,
      "Ġsib": 7336,
      "Ġbary": 7337,
      "ĠcosÎ¸": 7338,
      "Ġfrag": 7339,
      "Ġmeasurements": 7340,
      "Ġpresses": 7341,
      "Ġoptimizations": 7342,
      "Ġtowers": 7343,
      "Ġextremely": 7344,
      "ç®Ĺ": 7345,
      "\\\\{": 7346,
      "queness": 7347,
      "Ġmale": 7348,
      "Ġentr": 7349,
      "Ġ3600": 7350,
      "score": 7351,
      "Ġrestriction": 7352,
      "æī¾": 7353,
      "Ġglobal": 7354,
      "Ġeg": 7355,
      "Ġsomehow": 7356,
      "Ġ83": 7357,
      "setting": 7358,
      "Ġ198": 7359,
      "Ġpipe": 7360,
      "pen": 7361,
      "Ġbask": 7362,
      "uling": 7363,
      "Ġdistr": 7364,
      "Ġusers": 7365,
      "Ġexplain": 7366,
      "Ġmisinterpre": 7367,
      "Ġtheorems": 7368,
      "Ġdiscrete": 7369,
      "Ġintroduce": 7370,
      "Ġalone": 7371,
      "Ġscales": 7372,
      "Ġhandshakes": 7373,
      "$).\\": 7374,
      "ital": 7375,
      "Ġhypothes": 7376,
      "nlast": 7377,
      "Ġchloride": 7378,
      "hm": 7379,
      "pace": 7380,
      "Ġinfect": 7381,
      "Ġalarm": 7382,
      "Ġcomputational": 7383,
      "2005": 7384,
      "Ġrationals": 7385,
      "Ġsccs": 7386,
      "Ġmedical": 7387,
      "invalid": 7388,
      "Ġhh": 7389,
      "Ġ1800": 7390,
      "Ġsymbols": 7391,
      "..\\": 7392,
      "cut": 7393,
      "face": 7394,
      "planation": 7395,
      "1024": 7396,
      "express": 7397,
      "trans": 7398,
      "Ġmixture": 7399,
      "\\\\})": 7400,
      "icial": 7401,
      "tab": 7402,
      "available": 7403,
      "nment": 7404,
      "rical": 7405,
      "uture": 7406,
      "Ġcancer": 7407,
      "Ġcontact": 7408,
      "')": 7409,
      "tens": 7410,
      "via": 7411,
      "avings": 7412,
      "Ġbreaking": 7413,
      "Ġtemp": 7414,
      "âī¡": 7415,
      "++++": 7416,
      "Ġsweep": 7417,
      "Ġskewer": 7418,
      "era": 7419,
      "Ġfather": 7420,
      "Ġrearranged": 7421,
      "Ġmiscalculated": 7422,
      "Ġsi": 7423,
      "Ġunb": 7424,
      "bers": 7425,
      "112": 7426,
      "}}\\\\]\\": 7427,
      "135": 7428,
      "Ġslots": 7429,
      "Ġconcatenation": 7430,
      "å°Ĩ": 7431,
      "Ġresource": 7432,
      "Ġstairs": 7433,
      "Ġcircu": 7434,
      "planar": 7435,
      "pass": 7436,
      "¡®": 7437,
      "ç¡®": 7438,
      "Ġfuture": 7439,
      "Ġkids": 7440,
      "nbreak": 7441,
      "Ġrecom": 7442,
      "Ġdesk": 7443,
      "probability": 7444,
      "bruary": 7445,
      "rupt": 7446,
      ".\"}]}": 7447,
      "lings": 7448,
      "uing": 7449,
      "Ġpure": 7450,
      "Ġ\"-": 7451,
      "Ġ\\'(\\'": 7452,
      "Ġpainting": 7453,
      "æĪĳéľĢè¦ģ": 7454,
      "xor": 7455,
      "atible": 7456,
      "Ġvote": 7457,
      "Ġrooks": 7458,
      "nfloor": 7459,
      "Ġmob": 7460,
      "peed": 7461,
      "Ġcongruences": 7462,
      "simplify": 7463,
      "çĽ¸": 7464,
      "dr": 7465,
      "groups": 7466,
      "napp": 7467,
      "ential": 7468,
      "\\\\)),": 7469,
      "Ġ420": 7470,
      "Ġenqueue": 7471,
      "Ġprinting": 7472,
      "ifications": 7473,
      "feas": 7474,
      "Ġ\\'+\\'": 7475,
      "nare": 7476,
      "å¼": 7477,
      "Ġslice": 7478,
      "Ġstrengths": 7479,
      "Ġaccumulate": 7480,
      ")**:\\": 7481,
      "itch": 7482,
      "Ġinstr": 7483,
      "Ġchr": 7484,
      "Ġmanag": 7485,
      ")}.\\": 7486,
      "ledge": 7487,
      "Ġsuccessful": 7488,
      "Ġprecomputing": 7489,
      "upper": 7490,
      "Ġplate": 7491,
      "1000000000": 7492,
      "Ġbacktrack": 7493,
      "force": 7494,
      "Ġbelongs": 7495,
      "Ġthickness": 7496,
      "'\\\\)": 7497,
      "Ġmil": 7498,
      "\\'\\'": 7499,
      "Ġ1000000": 7500,
      "Ġmagnet": 7501,
      "Ġparabolas": 7502,
      "Ġimplications": 7503,
      "`).\\": 7504,
      "Ġidentif": 7505,
      "Ġfewest": 7506,
      "Ġphysical": 7507,
      "Ġvarying": 7508,
      "ropy": 7509,
      "Ġadvant": 7510,
      "pher": 7511,
      "Ġsurplus": 7512,
      "ndividing": 7513,
      "Ġtunne": 7514,
      "Ġcollision": 7515,
      ">>": 7516,
      "}_{\\\\": 7517,
      "Ġsave": 7518,
      "Ġslav": 7519,
      "Ġ\\\\)'": 7520,
      "ntr": 7521,
      "solve": 7522,
      "Ġec": 7523,
      "Ġshop": 7524,
      "Ġprepare": 7525,
      "Ġplanar": 7526,
      "Ġplanks": 7527,
      "Ġdefines": 7528,
      "nthesis": 7529,
      "rum": 7530,
      "depth": 7531,
      "}}{(": 7532,
      "olume": 7533,
      "centric": 7534,
      "Ġraise": 7535,
      "Ġuniqueness": 7536,
      "]\\\\).\\": 7537,
      "bottom": 7538,
      "Ŀè¯ķ": 7539,
      "perp": 7540,
      "ortun": 7541,
      "Ġguest": 7542,
      "Ġapc": 7543,
      "Ġserver": 7544,
      "Ġtrapezoids": 7545,
      "å°Ŀè¯ķ": 7546,
      ".$$\\": 7547,
      "rank": 7548,
      "increasing": 7549,
      "Ġchrom": 7550,
      "Ġboat": 7551,
      "atically": 7552,
      "160": 7553,
      "2857": 7554,
      "Ġconvey": 7555,
      "Ġjanuary": 7556,
      "Ġrook": 7557,
      "Ġlibr": 7558,
      "Ġyoung": 7559,
      "Ġscient": 7560,
      "Ġstrategies": 7561,
      "Ġisolated": 7562,
      "Ġinvariant": 7563,
      "ntaking": 7564,
      "Ġdependent": 7565,
      "Ġ288": 7566,
      "âī¤": 7567,
      "5000": 7568,
      "ration": 7569,
      "Ġthreshold": 7570,
      "Ġlands": 7571,
      "nsh": 7572,
      "union": 7573,
      "Ġrelating": 7574,
      "subset": 7575,
      "Ġpuzz": 7576,
      "ky": 7577,
      "pol": 7578,
      "win": 7579,
      "Ġstoring": 7580,
      "ngroup": 7581,
      "abd": 7582,
      "Ġagg": 7583,
      "ounters": 7584,
      "Ġcomputationally": 7585,
      "}|^": 7586,
      "Ġtc": 7587,
      "verification": 7588,
      "Ġalter": 7589,
      "Ġmodeled": 7590,
      "Ġintensity": 7591,
      "Ġnut": 7592,
      "itor": 7593,
      "Ġchips": 7594,
      "noh": 7595,
      "Ġinterpreted": 7596,
      "nindeed": 7597,
      "$).": 7598,
      "ius": 7599,
      "Ġ\\\\))\\": 7600,
      "Ġsharing": 7601,
      "table": 7602,
      "Ġinitialized": 7603,
      "Ġmisread": 7604,
      "âĪŀ": 7605,
      "between": 7606,
      "Ġscheduling": 7607,
      "Ġau": 7608,
      "Ġeigen": 7609,
      "Ġstair": 7610,
      "Ġtrunc": 7611,
      "Ġquadru": 7612,
      "280": 7613,
      "Ġapplication": 7614,
      "çŃ": 7615,
      "Ġpk": 7616,
      "aser": 7617,
      "Ġcompress": 7618,
      "izations": 7619,
      "Ġinduced": 7620,
      "Ġ2005": 7621,
      "Ġ2006": 7622,
      "Ġguarantees": 7623,
      "nconvert": 7624,
      "Ġbowl": 7625,
      "Ġengineer": 7626,
      "correct": 7627,
      "nes": 7628,
      "yme": 7629,
      "Ġaq": 7630,
      "Ġped": 7631,
      "isors": 7632,
      "class": 7633,
      "urrency": 7634,
      "Ġunpa": 7635,
      "Ġknowledge": 7636,
      "Ġtests": 7637,
      "Ġfinitely": 7638,
      "Ġmechanics": 7639,
      "children": 7640,
      "æĢ§": 7641,
      "mi": 7642,
      "inos": 7643,
      "Ġsieve": 7644,
      "ense": 7645,
      "Ġsunday": 7646,
      "Ġ9999": 7647,
      "Ġcorro": 7648,
      "Ġresist": 7649,
      "Ġ1200": 7650,
      "ursor": 7651,
      "Ġinverses": 7652,
      "Ġconverges": 7653,
      "Ġdeviation": 7654,
      "abil": 7655,
      "Ġreleased": 7656,
      "reduc": 7657,
      "atings": 7658,
      "ission": 7659,
      "nsw": 7660,
      "place": 7661,
      "nmid": 7662,
      "Ġpackages": 7663,
      "Ġrestaurant": 7664,
      "bmatrix": 7665,
      "Ġburn": 7666,
      "icity": 7667,
      "Ġ(\"": 7668,
      "apor": 7669,
      "Ġbrocard": 7670,
      "Ġlearning": 7671,
      "bling": 7672,
      "cial": 7673,
      "âĨĴ": 7674,
      "ç¤": 7675,
      "seq": 7676,
      "Ġperfectly": 7677,
      "Ġintegrating": 7678,
      "Ġrace": 7679,
      "Ġbarycentric": 7680,
      "sions": 7681,
      "onym": 7682,
      "Ġspend": 7683,
      "Ġtries": 7684,
      "Ġfebruary": 7685,
      "Ġredundant": 7686,
      "copy": 7687,
      "ĠÐ¿": 7688,
      "Ġjuice": 7689,
      "Ġwomen": 7690,
      "Ġdescribes": 7691,
      "}<|": 7692,
      "åĬ": 7693,
      "Ġreport": 7694,
      "uesday": 7695,
      "define": 7696,
      "Ġsheets": 7697,
      "Ġachieves": 7698,
      "+(": 7699,
      "Ġaob": 7700,
      "Ġson": 7701,
      "Ġea": 7702,
      "Ġcones": 7703,
      "ept": 7704,
      "Ġages": 7705,
      "setminus": 7706,
      "Ġadjustments": 7707,
      "ev": 7708,
      "ype": 7709,
      "Ġlem": 7710,
      "psilon": 7711,
      "encing": 7712,
      "hehehehehehehehehehehehehehehehehehehehehehehehehehehehehehehehehehehehehehehehehehehehehehehehehehehehehehehehehehehehehehehehe": 7713,
      "element": 7714,
      "Ġballoons": 7715,
      "Ġsink": 7716,
      "Ġpig": 7717,
      "Ġwed": 7718,
      "Ġcomb": 7719,
      "agonally": 7720,
      "Ġcommands": 7721,
      "Ġsheep": 7722,
      "Ġelectronic": 7723,
      "ymes": 7724,
      "build": 7725,
      "bx": 7726,
      "çĲ": 7727,
      "onest": 7728,
      "lets": 7729,
      "Ġopens": 7730,
      "Ġleveraging": 7731,
      "narr": 7732,
      "Ġtoday": 7733,
      "Ġgard": 7734,
      "Ġdiagonally": 7735,
      "ooth": 7736,
      "Ġhelping": 7737,
      "indices": 7738,
      "subseteq": 7739,
      "Ġ\\'?\\'": 7740,
      "spr": 7741,
      "Ġpenc": 7742,
      "Ġ220": 7743,
      "118": 7744,
      "0001": 7745,
      "Ġ143": 7746,
      "combin": 7747,
      "Ġtravels": 7748,
      "512": 7749,
      "å¹": 7750,
      "Ġ-(-": 7751,
      "Ġoutcome": 7752,
      "Ġart": 7753,
      "Ġ196": 7754,
      "Ġtedious": 7755,
      "Ġtal": 7756,
      "Ġ[\"": 7757,
      "Ġsimulating": 7758,
      "Ġearn": 7759,
      "130": 7760,
      "Ġconfirmed": 7761,
      "Ġperiodicity": 7762,
      "Ġgallons": 7763,
      "Ġreorder": 7764,
      "ords": 7765,
      "Ġapproaching": 7766,
      "ountain": 7767,
      "Ġbinding": 7768,
      "Ġrubles": 7769,
      "Ġcreates": 7770,
      "nproduct": 7771,
      "Ġpurple": 7772,
      "Ġsitting": 7773,
      "Ġirreduc": 7774,
      "infinity": 7775,
      "Ġbesides": 7776,
      "Ġgift": 7777,
      "Ġgau": 7778,
      "Ġ4000": 7779,
      "Ġcomputers": 7780,
      "versal": 7781,
      "Ġworld": 7782,
      "Ġshel": 7783,
      "6666": 7784,
      "Ġbridges": 7785,
      "Ġposts": 7786,
      "[\\\\": 7787,
      "nsolve": 7788,
      "Ġcoplanar": 7789,
      "keep": 7790,
      "Ġ$-": 7791,
      "117": 7792,
      ")(\\\\": 7793,
      "Ġrounding": 7794,
      "ubes": 7795,
      "Ġdollar": 7796,
      "Ġsensor": 7797,
      "Ġenumerate": 7798,
      "Ġbernard": 7799,
      "spring": 7800,
      "hline": 7801,
      "rec": 7802,
      "Ġfg": 7803,
      "Ġfire": 7804,
      "Ġni": 7805,
      "Ġ3000": 7806,
      "Ġworse": 7807,
      "Ġdeleting": 7808,
      "Ġcriteria": 7809,
      "mx": 7810,
      "year": 7811,
      "Ġmanually": 7812,
      "Ġobserver": 7813,
      "éĢļ": 7814,
      "Ġban": 7815,
      "ese": 7816,
      "Ġalthough": 7817,
      "(\\\\{": 7818,
      "Ġ132": 7819,
      "Ġeveryone": 7820,
      "Ġcauses": 7821,
      "Ġoccup": 7822,
      "Ġcollected": 7823,
      "Ġneutr": 7824,
      "intervals": 7825,
      "æ¯ıä¸ª": 7826,
      "nnumerator": 7827,
      "Ġwaste": 7828,
      "|\\\\),": 7829,
      "Ñĥ": 7830,
      "Ġtall": 7831,
      "Ġindeg": 7832,
      "*}\\": 7833,
      "Ġids": 7834,
      "Ġbeads": 7835,
      "lling": 7836,
      "ilit": 7837,
      "Ġbuttons": 7838,
      "Ġmechanical": 7839,
      "Ġcustomers": 7840,
      "Ġ?\\": 7841,
      "Ġpun": 7842,
      "Ġinver": 7843,
      "Ġperturb": 7844,
      "Ġfinds": 7845,
      "Ġeduc": 7846,
      "quel": 7847,
      "Ġlogarithmic": 7848,
      "Ġmiquel": 7849,
      "power": 7850,
      "Ġresembles": 7851,
      "ros": 7852,
      "Ġpicked": 7853,
      "Ġmixed": 7854,
      "`\\": 7855,
      "Ġbatter": 7856,
      "equation": 7857,
      "Ġcausing": 7858,
      "$?'},": 7859,
      "236": 7860,
      "tch": 7861,
      "cosy": 7862,
      "Ġheron": 7863,
      "æľĢ": 7864,
      "Ġtracking": 7865,
      "Ġessential": 7866,
      "factorial": 7867,
      "ç¤º": 7868,
      "07": 7869,
      "ules": 7870,
      "Ġcables": 7871,
      "Ġhem": 7872,
      "ncost": 7873,
      "Ġstreets": 7874,
      "Ġbranch": 7875,
      "Ġcopies": 7876,
      "Ġties": 7877,
      "Ġreve": 7878,
      "Ġseating": 7879,
      "Ġcalculates": 7880,
      "Ġunused": 7881,
      "âĪļ(": 7882,
      "Ġpassed": 7883,
      "dium": 7884,
      "Ġcontrolled": 7885,
      "half": 7886,
      "Ġlan": 7887,
      "Ġ01": 7888,
      "Ġinsights": 7889,
      "Ġoffspring": 7890,
      "Ġaverages": 7891,
      "Ġrecognize": 7892,
      "\")": 7893,
      ")}\\\\)": 7894,
      "yclic": 7895,
      "è´": 7896,
      "Ġecosy": 7897,
      "Ġrock": 7898,
      "Ġquartic": 7899,
      "Ġhomogeneous": 7900,
      "omer": 7901,
      "apers": 7902,
      "2011": 7903,
      "Ġoffset": 7904,
      "()`": 7905,
      "åĪĹ": 7906,
      "Î¼": 7907,
      "Ġyi": 7908,
      "oding": 7909,
      "Ġ100000000": 7910,
      "Ġbrings": 7911,
      "nselect": 7912,
      "Ġcollinearity": 7913,
      "Ġsuffixes": 7914,
      "Ġbpc": 7915,
      "Ġpreserve": 7916,
      "Ġenclosed": 7917,
      "Ġexchange": 7918,
      "Ġimagine": 7919,
      "Ġhundred": 7920,
      "ninteresting": 7921,
      "Ġhypothesis": 7922,
      "Ġbn": 7923,
      "Ġfa": 7924,
      "ister": 7925,
      "\\\\),\\": 7926,
      "Ġunchanged": 7927,
      "2001": 7928,
      "Ġwheel": 7929,
      "Ġprotect": 7930,
      "Ġlemma": 7931,
      "same": 7932,
      "ading": 7933,
      "Ġcompleting": 7934,
      "Ġdecay": 7935,
      "Ġpeak": 7936,
      "Ġjobs": 7937,
      "Ġregarding": 7938,
      "Ġexcenters": 7939,
      "732": 7940,
      "sur": 7941,
      "Ġcursor": 7942,
      "Ġpor": 7943,
      "Ġ2021": 7944,
      "ublic": 7945,
      "Ġfilling": 7946,
      "Ġpenalty": 7947,
      "Ġautomatically": 7948,
      "Ġly": 7949,
      "Ġded": 7950,
      "005": 7951,
      "orders": 7952,
      "Ġ\\'(": 7953,
      "2019": 7954,
      "Ġadvance": 7955,
      "Ġmanipulation": 7956,
      "Ġtriangulation": 7957,
      "Ġcircuit": 7958,
      "))(": 7959,
      "Ġpige": 7960,
      "Ġbillion": 7961,
      "Ġdefects": 7962,
      "Ġcheapest": 7963,
      "cx": 7964,
      "ools": 7965,
      "nbu": 7966,
      "nbase": 7967,
      "109": 7968,
      "nmo": 7969,
      "Ġindexed": 7970,
      "Ġdefinitions": 7971,
      "Ġextends": 7972,
      "Ġobservation": 7973,
      "ligible": 7974,
      "sure": 7975,
      "spec": 7976,
      "iting": 7977,
      "Ġstabil": 7978,
      "Ġshot": 7979,
      "Ġcool": 7980,
      "162": 7981,
      "Ġoffers": 7982,
      "Ġintegrate": 7983,
      "books": 7984,
      "Ġencountered": 7985,
      "nrearranging": 7986,
      "Ġirreducible": 7987,
      "nyour": 7988,
      "ray": 7989,
      "Ġbq": 7990,
      "Ġhp": 7991,
      "Ġadher": 7992,
      "Ġgrundy": 7993,
      "ordinates": 7994,
      "Ġ117": 7995,
      "Ġavail": 7996,
      "Ġmembr": 7997,
      "Ġeulerian": 7998,
      "Ġdenoting": 7999,
      "neighbors": 8000,
      "navailable": 8001,
      "Ġevidence": 8002,
      "cosÎ¸": 8003,
      "Ġproduces": 8004,
      "Ġalternates": 8005,
      "Ġcircumcenters": 8006,
      "Ġ1990": 8007,
      "Ġpup": 8008,
      "Ġdz": 8009,
      "Ġsolar": 8010,
      "Ġoptimizing": 8011,
      "Ġdivisions": 8012,
      "Ġslant": 8013,
      "Ġbalances": 8014,
      "Ġcontradictory": 8015,
      "Ġcluster": 8016,
      "Ġaggreg": 8017,
      ")%": 8018,
      "875": 8019,
      "cand": 8020,
      "sat": 8021,
      "Ġcn": 8022,
      "Ġsodium": 8023,
      "ival": 8024,
      "Ġworth": 8025,
      "nexplanation": 8026,
      "Ġconcepts": 8027,
      "ĠtanÎ¸": 8028,
      "central": 8029,
      "Ġutil": 8030,
      "mar": 8031,
      "speed": 8032,
      "Ġgems": 8033,
      "angements": 8034,
      "Ġroutes": 8035,
      "Ġarrows": 8036,
      "Ġ\\'<": 8037,
      "Ġ162": 8038,
      "1008": 8039,
      "243": 8040,
      "Ġcrossings": 8041,
      "Ġinfluenced": 8042,
      "Ġtrace": 8043,
      "Ġds": 8044,
      "sided": 8045,
      "Ġord": 8046,
      "finement": 8047,
      "Ġreser": 8048,
      "Ġmanual": 8049,
      "147": 8050,
      "Ġpeb": 8051,
      ")*(-": 8052,
      "Ġidentifying": 8053,
      "Ġparticularly": 8054,
      "Ġspectrum": 8055,
      "Ġflawed": 8056,
      "324": 8057,
      "hol": 8058,
      "tracted": 8059,
      "Ġconsistency": 8060,
      "intersection": 8061,
      "çİ°": 8062,
      "!,": 8063,
      "!\\\\)": 8064,
      "[/": 8065,
      "gu": 8066,
      "¸ı": 8067,
      "é¢": 8068,
      "ï¸ı": 8069,
      "Ġxn": 8070,
      "Ġrolled": 8071,
      "Ð°Ð": 8072,
      "Ġmotion": 8073,
      "Ġfriday": 8074,
      "!.\\": 8075,
      "Ġblow": 8076,
      "pointer": 8077,
      "ĠÎ·": 8078,
      "Ġworked": 8079,
      "Â°\\": 8080,
      "Ġpackage": 8081,
      "Ġcustomer": 8082,
      "Ġquarters": 8083,
      "Ġnitro": 8084,
      "æŁĲ": 8085,
      "|\\\\)": 8086,
      "Ķï¸ı": 8087,
      "Ġhab": 8088,
      "Ġdeb": 8089,
      "ntri": 8090,
      "Ġskills": 8091,
      "Ġexponentially": 8092,
      "åĽł": 8093,
      "Ġdownw": 8094,
      "Ġbouquets": 8095,
      "Ġmultipliers": 8096,
      "den": 8097,
      "Ġpx": 8098,
      "Ġbatt": 8099,
      "Ġ336": 8100,
      "Ġprepar": 8101,
      "Ġhalves": 8102,
      "Ġpacking": 8103,
      "Ġpurposes": 8104,
      "Ġpennies": 8105,
      "Ġdestroyed": 8106,
      "Ġcorrosion": 8107,
      "has": 8108,
      "Ġreconsider": 8109,
      "Ġlu": 8110,
      "Ġjunctions": 8111,
      "124": 8112,
      "Ġcalculus": 8113,
      "Ġelev": 8114,
      "Ġelectrom": 8115,
      "{-\\\\": 8116,
      "Ġreplacements": 8117,
      "Ġpreserves": 8118,
      "multiplying": 8119,
      "Ġmimic": 8120,
      ")$.": 8121,
      "eah": 8122,
      "fit": 8123,
      "Ġdisrupt": 8124,
      "....\\": 8125,
      "Ġdenominations": 8126,
      "Ġserv": 8127,
      "ferences": 8128,
      "Ġbills": 8129,
      "Ġfluid": 8130,
      "hard": 8131,
      "ī²": 8132,
      "Ġ104": 8133,
      "140": 8134,
      "Ġdisplac": 8135,
      "Ġstretch": 8136,
      "vian": 8137,
      "Ġsleep": 8138,
      "Ġ255": 8139,
      "},\\": 8140,
      "Ġcomplicate": 8141,
      "ursday": 8142,
      "Ġhitting": 8143,
      "Ġdima": 8144,
      "Ġpoles": 8145,
      "Ġtrains": 8146,
      "Ġsubmis": 8147,
      "ĠÏģ": 8148,
      "Ġboole": 8149,
      "Ġfalling": 8150,
      "ĠâľĶï¸ı": 8151,
      "Ġbernardo": 8152,
      "03": 8153,
      "]{\\\\": 8154,
      "bisect": 8155,
      "frequency": 8156,
      "link": 8157,
      "ä¾": 8158,
      "enerate": 8159,
      "Ġ2520": 8160,
      "Ġrecalling": 8161,
      "nnumbers": 8162,
      "Ġingredient": 8163,
      "Ġdevice": 8164,
      "è®¡ç®Ĺ": 8165,
      "æĹ¶éĹ´": 8166,
      "Ġgarden": 8167,
      ":-": 8168,
      "]).\\": 8169,
      "flo": 8170,
      "window": 8171,
      "ĠÑģ": 8172,
      "reverse": 8173,
      "Ġram": 8174,
      "nline": 8175,
      "Ġtor": 8176,
      "Ġhig": 8177,
      "Ġ103": 8178,
      "Ġplates": 8179,
      "Ġevaluating": 8180,
      "nprocessing": 8181,
      "book": 8182,
      "Ġhuge": 8183,
      "Ġoxidation": 8184,
      "ĠâľĶï¸ı\\": 8185,
      "Ġhiggs": 8186,
      "Ġ\\\\)**:": 8187,
      "olved": 8188,
      "Ġimplemented": 8189,
      "Ġclosing": 8190,
      "ferent": 8191,
      "Ġefgh": 8192,
      "Ġskipping": 8193,
      "Ġavailability": 8194,
      "cor": 8195,
      "water": 8196,
      "arg": 8197,
      "Ġ320": 8198,
      "Ġratings": 8199,
      "ndot": 8200,
      "osis": 8201,
      "Ġmonic": 8202,
      "scale": 8203,
      "Ġabsorbed": 8204,
      "è¡¨ç¤º": 8205,
      "Ġsulf": 8206,
      "Ġnight": 8207,
      "orces": 8208,
      "arrying": 8209,
      "update": 8210,
      "Ġmixing": 8211,
      "Ġcitiz": 8212,
      "Ġhote": 8213,
      "otics": 8214,
      "Ġshove": 8215,
      "Ġchip": 8216,
      "Ġtruck": 8217,
      "Ġlogs": 8218,
      "Ġ119": 8219,
      "Ġdetection": 8220,
      "Ġtur": 8221,
      "iring": 8222,
      "emical": 8223,
      "Ġ\"+": 8224,
      "Ġ{\\": 8225,
      "Ġpathways": 8226,
      "Ġfrust": 8227,
      "shift": 8228,
      "dynamic": 8229,
      "nedges": 8230,
      "Ġinserted": 8231,
      "Ġwarriors": 8232,
      "éĢļè¿ĩ": 8233,
      "bed": 8234,
      "nqueue": 8235,
      "visited": 8236,
      "remainder": 8237,
      "Ġbri": 8238,
      "Ġsuits": 8239,
      "ounded": 8240,
      "psi": 8241,
      "Ġqueen": 8242,
      ")|\\": 8243,
      "Ġrigor": 8244,
      "Ġpigeon": 8245,
      "cip": 8246,
      "etri": 8247,
      "Ġiterto": 8248,
      "270": 8249,
      "å®ļ": 8250,
      "Ġdiamond": 8251,
      "Ġentrance": 8252,
      "Ġitertools": 8253,
      "Ġep": 8254,
      "nshe": 8255,
      "oosing": 8256,
      "Ġ107": 8257,
      "Ġgrand": 8258,
      "Ġphone": 8259,
      "Ġ441": 8260,
      "related": 8261,
      "Ġbeneficial": 8262,
      "è¾¹": 8263,
      "Ġteacher": 8264,
      "evalu": 8265,
      "yy": 8266,
      "Ġsale": 8267,
      "Ġsavings": 8268,
      "Ġrepost": 8269,
      "Ġvol": 8270,
      "Ġlig": 8271,
      "Ġrationalize": 8272,
      "nunless": 8273,
      "Ġ\\'.\\',": 8274,
      "Ġmutually": 8275,
      "Ġairport": 8276,
      "å®ĥä»¬": 8277,
      "rypted": 8278,
      "Ġrigorous": 8279,
      "pqr": 8280,
      "nsquare": 8281,
      "Ġcompression": 8282,
      "Ġtrisect": 8283,
      "nmatches": 8284,
      "{(\\\\": 8285,
      "Ġdirectrix": 8286,
      "Ġamb": 8287,
      "Ġspell": 8288,
      "Ġscored": 8289,
      "difference": 8290,
      "Ġindividuals": 8291,
      "Ġster": 8292,
      "Ġdance": 8293,
      "Ġhorse": 8294,
      "Ġroles": 8295,
      "\\\\[-": 8296,
      "Ġ[(-": 8297,
      "nuke": 8298,
      "Ġputting": 8299,
      "Ġcrystal": 8300,
      "matrices": 8301,
      "æī¾åĪ°": 8302,
      "440": 8303,
      "??": 8304,
      "mber": 8305,
      "Ġtv": 8306,
      "Ġbon": 8307,
      "Ġbird": 8308,
      "Ġoq": 8309,
      "Ġlane": 8310,
      "Ġwhereas": 8311,
      "Ġadult": 8312,
      "Ġ133": 8313,
      "Ġdelivered": 8314,
      "Ġadditive": 8315,
      "Ġenzymes": 8316,
      "Ġdwarf": 8317,
      "!)^": 8318,
      "matches": 8319,
      "Ñı": 8320,
      "Ġ9000": 8321,
      "Ġfixing": 8322,
      "Ġserve": 8323,
      "Ġacceleration": 8324,
      "wbwb": 8325,
      "'\\\\),": 8326,
      ")..": 8327,
      "lm": 8328,
      "ump": 8329,
      "Ġperimeters": 8330,
      "Ġ109": 8331,
      "nmain": 8332,
      "expression": 8333,
      "999999": 8334,
      "Ġabsorption": 8335,
      "$:\\": 8336,
      ")`.\\": 8337,
      ".#": 8338,
      "700": 8339,
      "nround": 8340,
      "Ġ499": 8341,
      "Ġ432": 8342,
      "Ġcmb": 8343,
      "Ġivan": 8344,
      "west": 8345,
      "angent": 8346,
      "inese": 8347,
      "possib": 8348,
      "Ġ154": 8349,
      "Ġwinners": 8350,
      "Ġslot": 8351,
      "Ġconverg": 8352,
      "Ġbombs": 8353,
      "æ¯Ķ": 8354,
      "Ġfair": 8355,
      "Ġhot": 8356,
      "Ġcoding": 8357,
      "Ġmatchst": 8358,
      "strings": 8359,
      "Ġvillage": 8360,
      "Ġrings": 8361,
      "Ġ165": 8362,
      "187": 8363,
      "Ġperpendicularity": 8364,
      "Ġstream": 8365,
      "èī²": 8366,
      "Ġtuesday": 8367,
      "Ġprotons": 8368,
      "Ġmeas": 8369,
      "team": 8370,
      "verify": 8371,
      "Ġdoubling": 8372,
      "Ġevolutionary": 8373,
      "ncontinuing": 8374,
      "ä¹Łè®¸æĪĳåı¯ä»¥": 8375,
      "Ġunbounded": 8376,
      "nprev": 8377,
      "Ġeh": 8378,
      "amed": 8379,
      "teen": 8380,
      "zeros": 8381,
      "Ġexperiments": 8382,
      "Ġsilvia": 8383,
      "Ġpollin": 8384,
      "Ġsaturday": 8385,
      "Ġenemy": 8386,
      "æĭ": 8387,
      "ancing": 8388,
      "Ġlack": 8389,
      "ashed": 8390,
      "Ġupon": 8391,
      "1002": 8392,
      "Ġorientations": 8393,
      "Ġthousands": 8394,
      "Ġbk": 8395,
      "Ġbids": 8396,
      "ngrid": 8397,
      "Ġarrow": 8398,
      "Ġliqu": 8399,
      "Ġfactorizations": 8400,
      "prove": 8401,
      "ndivisors": 8402,
      "hibit": 8403,
      "Ġenhance": 8404,
      "Ġpreparation": 8405,
      "Ġassumptions": 8406,
      "Ġdefinitely": 8407,
      "Ġcandles": 8408,
      "Ġreactants": 8409,
      "Ġconcatenate": 8410,
      "ĠâĬķ": 8411,
      "nesday": 8412,
      "counter": 8413,
      "Ġandre": 8414,
      "Ġseq": 8415,
      "Ġattract": 8416,
      "Ġchinese": 8417,
      "Ġmodifications": 8418,
      "sequences": 8419,
      "Ġconverted": 8420,
      "Ġrepair": 8421,
      "Ġspinner": 8422,
      "è¡Į": 8423,
      "Ġ\\'#\\'": 8424,
      "Ġheavy": 8425,
      "Ġenzyme": 8426,
      "Ġuncovered": 8427,
      "Ñħ": 8428,
      "Ġip": 8429,
      "Ġmapped": 8430,
      "Ġbrute": 8431,
      "Ġoriginally": 8432,
      "Ġhighly": 8433,
      "Ġservers": 8434,
      "777": 8435,
      "Ġmolar": 8436,
      "Ġgb": 8437,
      "Ġ149": 8438,
      "Ġcontributing": 8439,
      "ĠÐ²": 8440,
      "Ġ[[]": 8441,
      "substituting": 8442,
      "volume": 8443,
      "Ġtiling": 8444,
      "third": 8445,
      "nsin": 8446,
      "1011": 8447,
      "ĠĠĠĠĠĠĠĠĠĠĠĠĠĠĠĠĠĠĠĠĠĠĠĠĠĠĠ": 8448,
      "Ġconcatenated": 8449,
      "oxide": 8450,
      "db": 8451,
      "Ġct": 8452,
      "Ġconverse": 8453,
      "Ġselections": 8454,
      "Ġ252": 8455,
      "Ġemit": 8456,
      "Ġeliminated": 8457,
      "Ġkilome": 8458,
      "Ġpipes": 8459,
      "éĥ": 8460,
      "Ġhonest": 8461,
      "Ġzone": 8462,
      "Ġ122": 8463,
      "Ġflows": 8464,
      "Ġtraining": 8465,
      "éĥ¨": 8466,
      ")$.\\": 8467,
      "Ġill": 8468,
      "Ġfou": 8469,
      "Ġtrivial": 8470,
      "\",(": 8471,
      "2021": 8472,
      "format": 8473,
      "Ġchallenge": 8474,
      "Ġduration": 8475,
      "æŀľ": 8476,
      "Ġtight": 8477,
      "Ġ\\\\|": 8478,
      "Ġfusion": 8479,
      "pleft": 8480,
      "neven": 8481,
      "ormal": 8482,
      "Ġguests": 8483,
      "Ġpartitioning": 8484,
      "Ġtraveling": 8485,
      "Ġpolice": 8486,
      "åħ³": 8487,
      "Ġweeks": 8488,
      "Ġcombinatorics": 8489,
      "450": 8490,
      "aåĴĮ": 8491,
      "ining": 8492,
      "Ġsou": 8493,
      "Ġml": 8494,
      "}}}{": 8495,
      "Ġcevian": 8496,
      "^{-\\\\": 8497,
      "Ġintegrals": 8498,
      "Ġjumping": 8499,
      "ground": 8500,
      "Ġot": 8501,
      "Ġhill": 8502,
      "Ġdeals": 8503,
      "Ġ540": 8504,
      "Ġmales": 8505,
      "popleft": 8506,
      "Ġantip": 8507,
      "bius": 8508,
      "oe": 8509,
      "Ġtim": 8510,
      "atial": 8511,
      "orpor": 8512,
      "rop": 8513,
      "Ġeb": 8514,
      "isot": 8515,
      "Ġassumes": 8516,
      "deforces": 8517,
      "Ġgalaxies": 8518,
      "ģĦ": 8519,
      "Ġexpectation": 8520,
      "ncondition": 8521,
      "small": 8522,
      "=\\\\": 8523,
      "vv": 8524,
      "âģĦ": 8525,
      "roph": 8526,
      "Ġmelo": 8527,
      "aded": 8528,
      "Ġsoon": 8529,
      "_{(": 8530,
      "Ġ$\\\\{": 8531,
      "Ġdoubled": 8532,
      "Ġantibiotics": 8533,
      "æį": 8534,
      "enes": 8535,
      "Ġants": 8536,
      "Ġtoy": 8537,
      "Ġdescent": 8538,
      "when": 8539,
      "Ġdelivery": 8540,
      "Ġlife": 8541,
      "Ġpigeonhole": 8542,
      "aåĴĮb": 8543,
      "'d": 8544,
      ")**": 8545,
      "cking": 8546,
      "Ġbea": 8547,
      "119": 8548,
      "Ġelsewhere": 8549,
      "Ġpaying": 8550,
      "Ġcancels": 8551,
      "Ġheavier": 8552,
      "Ġrepetition": 8553,
      "quaring": 8554,
      "Ġweigh": 8555,
      "\\\\(-": 8556,
      "Ġtangential": 8557,
      ")]/": 8558,
      "colors": 8559,
      "Ġappearing": 8560,
      "Ġ1995": 8561,
      "Ġprincip": 8562,
      "Ġobstacles": 8563,
      "draw": 8564,
      "}).\\": 8565,
      "çº": 8566,
      "Ġtheories": 8567,
      "Ġble": 8568,
      "Ġsuspect": 8569,
      "2012": 8570,
      "})\\\\)": 8571,
      "Ġintegration": 8572,
      "nmaximum": 8573,
      "Ġdetected": 8574,
      "06": 8575,
      "nabc": 8576,
      "sphere": 8577,
      "Ġpapers": 8578,
      "Ġsyll": 8579,
      "Ġinitialization": 8580,
      "Ġmultiplicity": 8581,
      "Ġhappening": 8582,
      "Ġpurchases": 8583,
      "Ġowes": 8584,
      "å½¢": 8585,
      "Ġbh": 8586,
      "Ġimpose": 8587,
      "####": 8588,
      "component": 8589,
      "Ġlanguages": 8590,
      "ndoesn": 8591,
      "]*": 8592,
      "]$,": 8593,
      "blo": 8594,
      "ties": 8595,
      "pling": 8596,
      "Ġcoming": 8597,
      "_{-": 8598,
      "Ġsmooth": 8599,
      "ensen": 8600,
      "168": 8601,
      "letters": 8602,
      "including": 8603,
      "Ġtools": 8604,
      "Ġtram": 8605,
      "Ġzeroes": 8606,
      "hips": 8607,
      "1989": 8608,
      "Ã¶bius": 8609,
      "noverall": 8610,
      "Ġadvantage": 8611,
      ")}}{": 8612,
      "aab": 8613,
      "zy": 8614,
      "Ġts": 8615,
      "umin": 8616,
      "Ġconfinement": 8617,
      "Ġvide": 8618,
      "Ġdiversity": 8619,
      "Ġkept": 8620,
      "Ġmetr": 8621,
      "changes": 8622,
      "Ġtraps": 8623,
      "artes": 8624,
      "Ġcharges": 8625,
      "Ġtraversing": 8626,
      "Ġbowls": 8627,
      "Ġgovernment": 8628,
      "Ġsurvival": 8629,
      "Ġpour": 8630,
      "Ġbish": 8631,
      "Ġtoss": 8632,
      "anger": 8633,
      "Ġmother": 8634,
      "126": 8635,
      "Ġhabit": 8636,
      "kj": 8637,
      "ught": 8638,
      "ç½": 8639,
      "éĿ": 8640,
      "Ġtherm": 8641,
      "Ġproton": 8642,
      "Ġ106": 8643,
      "Ġ700": 8644,
      "Ġsold": 8645,
      "ractical": 8646,
      "196": 8647,
      "Ġconsistently": 8648,
      "planes": 8649,
      "Ġvova": 8650,
      "piece": 8651,
      "Ġadhering": 8652,
      "420": 8653,
      "ey": 8654,
      "mp": 8655,
      "éĻ": 8656,
      "Ġcarrying": 8657,
      "Ġlcp": 8658,
      "Ġnoise": 8659,
      "Ġconcer": 8660,
      "Ġconcurrency": 8661,
      "æĪĲ": 8662,
      "ĠÐ´": 8663,
      "Ġcategories": 8664,
      "Ġmetals": 8665,
      "Ġobstacle": 8666,
      ")[": 8667,
      "Ġiii": 8668,
      "Ġethan": 8669,
      "Ġunm": 8670,
      "fraction": 8671,
      "permut": 8672,
      "Ġgenerators": 8673,
      "Ġbug": 8674,
      "Ġphrase": 8675,
      "Ġsigned": 8676,
      "Ġslime": 8677,
      "Ġmathematically": 8678,
      "Ġjohn": 8679,
      "åĲĳéĩı": 8680,
      "Ġthrows": 8681,
      "ream": 8682,
      "Ġdet": 8683,
      "Ġsocial": 8684,
      "Ġweb": 8685,
      "Ġexplos": 8686,
      "}}\\\\]": 8687,
      "))^{": 8688,
      "checking": 8689,
      "Ġpegs": 8690,
      "Ġstudies": 8691,
      "nlcm": 8692,
      "Ġfailure": 8693,
      "Ġnickels": 8694,
      "ulator": 8695,
      "Ġsimulations": 8696,
      "Ġdecision": 8697,
      "Ġcompart": 8698,
      "Ġincorpor": 8699,
      "ncontinue": 8700,
      "Ġgalaxy": 8701,
      "uss": 8702,
      "Ġdm": 8703,
      "Ġexcentral": 8704,
      "Ġdebt": 8705,
      "actions": 8706,
      "104": 8707,
      "Ġsubsegments": 8708,
      "ody": 8709,
      "Ġblast": 8710,
      "222": 8711,
      "bara": 8712,
      "Ġenclosure": 8713,
      "+}": 8714,
      "Ġtit": 8715,
      "Ġcond": 8716,
      "Ġsus": 8717,
      "Ġrods": 8718,
      "nny": 8719,
      "Ġ1296": 8720,
      "Ġcarol": 8721,
      "Ġpyl": 8722,
      "âīł": 8723,
      "Ġmirr": 8724,
      "Ġstripes": 8725,
      "Ġlanding": 8726,
      "nbe": 8727,
      "Ġhost": 8728,
      "Ġ399": 8729,
      "Ġrap": 8730,
      "Ġchan": 8731,
      ")/(-": 8732,
      "Ġproducing": 8733,
      "Ġswim": 8734,
      "Ġserved": 8735,
      "Ġtube": 8736,
      "Ġimpractical": 8737,
      "Ġwoman": 8738,
      "Ġportion": 8739,
      "çŃī": 8740,
      "Ġmembrane": 8741,
      "Ġnitrogen": 8742,
      "cur": 8743,
      "lt": 8744,
      "nuse": 8745,
      "Ð»": 8746,
      "Ġgar": 8747,
      "Ġpool": 8748,
      "Ġshr": 8749,
      "Ġpreced": 8750,
      "Ġ{(": 8751,
      "Ġzx": 8752,
      "Ġpaul": 8753,
      "Ġsubmatrix": 8754,
      "sums": 8755,
      "Ġdrople": 8756,
      "Ð½Ñĭ": 8757,
      "Ġcontinued": 8758,
      "Ġelectromagnetic": 8759,
      "Ġoo": 8760,
      "Ġdimes": 8761,
      "entially": 8762,
      "conc": 8763,
      "Ġappending": 8764,
      "Ġjensen": 8765,
      "Ġ201": 8766,
      "Ġ153": 8767,
      "\\\\]'},": 8768,
      "Ġshadow": 8769,
      "Ġisolate": 8770,
      "]'},": 8771,
      "Ġinstruct": 8772,
      "Ġ(+": 8773,
      "Ġuv": 8774,
      "ook": 8775,
      "Ġjen": 8776,
      "2500": 8777,
      "Ġclearer": 8778,
      "Ġcompatible": 8779,
      "Ġtypical": 8780,
      "Ġlosses": 8781,
      "$\",(": 8782,
      "Ġorganisms": 8783,
      "codeer": 8784,
      "Ġinvertible": 8785,
      "Ġchaotic": 8786,
      "Ġconveyor": 8787,
      "Ġliquid": 8788,
      "$:": 8789,
      "pb": 8790,
      "åį": 8791,
      "Ġpt": 8792,
      "Ġtold": 8793,
      "Ġseated": 8794,
      "Ġexer": 8795,
      "Ġ10201": 8796,
      "Ġ[\\\\": 8797,
      "orses": 8798,
      "Ġidentified": 8799,
      "Ġphotons": 8800,
      "Ġdiseases": 8801,
      "Ġancestor": 8802,
      "fa": 8803,
      "light": 8804,
      "Ġiron": 8805,
      "eme": 8806,
      "Ġdeath": 8807,
      "nme": 8808,
      "Ġrevenue": 8809,
      "Ġemer": 8810,
      "]`.\\": 8811,
      "cis": 8812,
      "cape": 8813,
      "é¡": 8814,
      "Ġthursday": 8815,
      "Ġpays": 8816,
      "aylor": 8817,
      "Ġpolymers": 8818,
      "Ġ147": 8819,
      "nremove": 8820,
      "Ġ289": 8821,
      "nnotice": 8822,
      "Ġlexicographical": 8823,
      "Ġdescribing": 8824,
      "å¾Ĺ": 8825,
      "Ġrelativity": 8826,
      "Ñĩ": 8827,
      "Ġconic": 8828,
      "Ġ480": 8829,
      "keys": 8830,
      "Ġtotals": 8831,
      "1000000": 8832,
      "nlar": 8833,
      "Ġstrips": 8834,
      "Ġdecompose": 8835,
      "Ġmorning": 8836,
      "Ġcompetition": 8837,
      "235294": 8838,
      ")].\\": 8839,
      "ÃŃ": 8840,
      "Ġsake": 8841,
      "Ġcache": 8842,
      "Ġhall": 8843,
      "Ġ333": 8844,
      "Ġsust": 8845,
      "inted": 8846,
      "Ġsubgrid": 8847,
      "Ġsummands": 8848,
      "Ġshelf": 8849,
      "Ġrotates": 8850,
      "Ġwidths": 8851,
      "works": 8852,
      ".$'},": 8853,
      "pip": 8854,
      "vation": 8855,
      "Ġsecre": 8856,
      "Ġgoods": 8857,
      "Ġheur": 8858,
      "nthey": 8859,
      "rown": 8860,
      "Ġstudy": 8861,
      "Ġlimak": 8862,
      "88235294": 8863,
      "Ġbulbs": 8864,
      "Ġexperimental": 8865,
      "ä¾ĭ": 8866,
      "?\"\\": 8867,
      "icle": 8868,
      "****": 8869,
      "Ġspatial": 8870,
      "Ġrearrangement": 8871,
      "Ġrecorded": 8872,
      "åĨħ": 8873,
      "Ġhistory": 8874,
      "Ġindistinguish": 8875,
      "Ġindegree": 8876,
      "Ġfourier": 8877,
      ",...": 8878,
      "ole": 8879,
      "|}{\\\\": 8880,
      "ĠmÃ¶bius": 8881,
      "Ġwent": 8882,
      "Ġinch": 8883,
      "Ġrelo": 8884,
      "condition": 8885,
      "Ġboss": 8886,
      "Ġrespecting": 8887,
      "Ġinconsistency": 8888,
      "Ġsilver": 8889,
      "Ġmovie": 8890,
      "Ġlibrary": 8891,
      "().\\": 8892,
      "`:": 8893,
      "mass": 8894,
      "Ġ@": 8895,
      "onom": 8896,
      "period": 8897,
      "Ġchecker": 8898,
      "hev": 8899,
      "expr": 8900,
      "äºĨ": 8901,
      "Ġteleport": 8902,
      "Ġportal": 8903,
      "Ġdisplacement": 8904,
      ",\\'": 8905,
      "0625": 8906,
      "bys": 8907,
      "nperson": 8908,
      "nlooks": 8909,
      "å¦Ĥæŀľ": 8910,
      "byshev": 8911,
      "$;": 8912,
      "':\\": 8913,
      "Ł©": 8914,
      "Ġpn": 8915,
      "Ġpab": 8916,
      "127": 8917,
      "})\\\\),": 8918,
      "Ġvariations": 8919,
      "Ġescape": 8920,
      "Ġfeasibility": 8921,
      "Ġencrypted": 8922,
      "Ġnegligible": 8923,
      "æĸ¹æ³ķ": 8924,
      "Ġthermal": 8925,
      "cs": 8926,
      "Ġmountain": 8927,
      "Ġdates": 8928,
      "Ġ299": 8929,
      "Ġlaser": 8930,
      "irds": 8931,
      "apse": 8932,
      "rif": 8933,
      "active": 8934,
      "Ġ124": 8935,
      "Ġcontro": 8936,
      "Ġsimplistic": 8937,
      ")}\\\\).\\": 8938,
      "Ġ504": 8939,
      "Ġ...(": 8940,
      "336": 8941,
      "Ġchallenges": 8942,
      "Ġnucleus": 8943,
      "Ġtunnel": 8944,
      ":.": 8945,
      "næīĢä»¥": 8946,
      "Ġaug": 8947,
      "Ġbos": 8948,
      "Ġwolves": 8949,
      "Ġchose": 8950,
      "Ġtruth": 8951,
      "nie": 8952,
      "Ġcorrectness": 8953,
      "oki": 8954,
      "Ġfacing": 8955,
      "Ġsiblings": 8956,
      "'_": 8957,
      "]),": 8958,
      "best": 8959,
      "nsquaring": 8960,
      "Ġ$|": 8961,
      "person": 8962,
      "Ġ129": 8963,
      "pendence": 8964,
      "Ġgeneration": 8965,
      "ĠâĪļ[": 8966,
      "nunique": 8967,
      "underline": 8968,
      "ordered": 8969,
      "divisors": 8970,
      "Ġmiscalculation": 8971,
      "Ġbirthday": 8972,
      "imately": 8973,
      "Ġwhites": 8974,
      "ssian": 8975,
      "Ġjunction": 8976,
      "Ġworkers": 8977,
      "Ġbike": 8978,
      "Ġpreferred": 8979,
      "Ġkinds": 8980,
      "Ġslavko": 8981,
      "Ġprincipal": 8982,
      "\"]\\": 8983,
      "bur": 8984,
      "lers": 8985,
      "rating": 8986,
      "isons": 8987,
      "Ġbear": 8988,
      "Ġsees": 8989,
      "Ġkit": 8990,
      "sinÎ¸": 8991,
      "track": 8992,
      "Ġphen": 8993,
      "Ġskin": 8994,
      "Ġcounterexample": 8995,
      "Ġfemales": 8996,
      "Ġmusic": 8997,
      "Ġhemis": 8998,
      "Ġmetric": 8999,
      "'.": 9000,
      "car": 9001,
      "fall": 9002,
      "ope": 9003,
      "Ġfd": 9004,
      "Ġstages": 9005,
      "nii": 9006,
      "Ġsubst": 9007,
      "ncross": 9008,
      "Ġ137": 9009,
      "Ġavoids": 9010,
      "è®¾": 9011,
      ")}}": 9012,
      "304": 9013,
      "Ġexposed": 9014,
      "Ġdiscuss": 9015,
      "Ġevaluated": 9016,
      "Ġspacing": 9017,
      "Ġknaps": 9018,
      "Ġ\\')\\'": 9019,
      "èĢĥèĻĳä½¿çĶ¨": 9020,
      "palindrome": 9021,
      "Ġshovels": 9022,
      "(âĪļ": 9023,
      "384": 9024,
      "Ġbanks": 9025,
      "nbc": 9026,
      "Ġacyclic": 9027,
      "Ġmaxima": 9028,
      "ogram": 9029,
      "1788": 9030,
      "abcdef": 9031,
      "Ġbehaves": 9032,
      "Ġchebyshev": 9033,
      "Ġskew": 9034,
      "that": 9035,
      "chi": 9036,
      "Ġrevisit": 9037,
      "codeforces": 9038,
      "Ġnumerators": 9039,
      "Ġcakes": 9040,
      "Ġmassive": 9041,
      "Ġtetrahedra": 9042,
      "Ġclassical": 9043,
      "operations": 9044,
      "Ġrobots": 9045,
      "åħ¶": 9046,
      "Ġsupporting": 9047,
      "nçĦ¶åĲİ": 9048,
      "organ": 9049,
      "cell": 9050,
      "ivistic": 9051,
      "Ġ5040": 9052,
      "456": 9053,
      "Ġattacked": 9054,
      "Ġentering": 9055,
      "Ġdrinks": 9056,
      "Ġelectrode": 9057,
      "Ġrapid": 9058,
      "Ġcounters": 9059,
      "ention": 9060,
      "roman": 9061,
      "Ġ888": 9062,
      "ermost": 9063,
      "Ġsequentially": 9064,
      "136": 9065,
      "Ġ1983": 9066,
      "Ġbullets": 9067,
      "Ġpuzzle": 9068,
      "hi": 9069,
      "ĠçļĦ": 9070,
      "Ġ\\\\],": 9071,
      "orage": 9072,
      "Ġrb": 9073,
      "Ġaccre": 9074,
      "Ġbackward": 9075,
      "Ġaging": 9076,
      "atio": 9077,
      "Ġtracks": 9078,
      "Ġfinishes": 9079,
      "Ġethanol": 9080,
      "oi": 9081,
      "âĮ": 9082,
      "resid": 9083,
      "Ġ\\\\)\\'": 9084,
      "\\\\)?": 9085,
      "Ġsubgroup": 9086,
      "Ġpairings": 9087,
      "Ġready": 9088,
      "Ġmedium": 9089,
      "attack": 9090,
      "degrees": 9091,
      "Ġasymptotes": 9092,
      "Ġbarbara": 9093,
      "Ð¾Ð´": 9094,
      "Ð¸Ð": 9095,
      "å®ĥä»¬çļĦ": 9096,
      "Ġindistinguishable": 9097,
      "011": 9098,
      "Ġpies": 9099,
      "Ġbell": 9100,
      "\\\\))": 9101,
      "osomes": 9102,
      "abba": 9103,
      "uctu": 9104,
      "242": 9105,
      "Ġpictures": 9106,
      "greater": 9107,
      "Ġantibiotic": 9108,
      "è´¨": 9109,
      "ç½®": 9110,
      "vin": 9111,
      "ÏĦ": 9112,
      "olded": 9113,
      "Ġpops": 9114,
      "Ġsamples": 9115,
      "Ġ189": 9116,
      "ĠâĪļ[(": 9117,
      "Ġvisitors": 9118,
      "intersect": 9119,
      "Ġcomparisons": 9120,
      "å¤§": 9121,
      "Ġdeletion": 9122,
      ".*": 9123,
      "opes": 9124,
      "Ġaster": 9125,
      "Ġexits": 9126,
      "ndata": 9127,
      "Ġsport": 9128,
      "Ġcorrel": 9129,
      "Ġzinc": 9130,
      "Ġgrades": 9131,
      "box": 9132,
      "Ġ4096": 9133,
      "Ġgcds": 9134,
      "minutes": 9135,
      "Ġfluctu": 9136,
      "Ġmarble": 9137,
      "Ġdrops": 9138,
      "Ġmeasuring": 9139,
      "kers": 9140,
      "Ġrib": 9141,
      "alice": 9142,
      "Ġdd": 9143,
      "Ġ2240": 9144,
      "Ġgi": 9145,
      "det": 9146,
      "ntop": 9147,
      "Ġrelease": 9148,
      "Ġaccepted": 9149,
      "Ġ298": 9150,
      "Ġcheaper": 9151,
      "Ġsurrounding": 9152,
      "+---": 9153,
      "Ġfence": 9154,
      "Ġshield": 9155,
      "2013": 9156,
      "Ġdefe": 9157,
      "Ġtrigonometry": 9158,
      "nconstraints": 9159,
      "steps": 9160,
      "Ġattacking": 9161,
      "green": 9162,
      "tuple": 9163,
      "dies": 9164,
      "fill": 9165,
      "Ġtom": 9166,
      "Ġreprod": 9167,
      "oms": 9168,
      "clique": 9169,
      "Ġgenerality": 9170,
      "Ġquadrants": 9171,
      "éĢī": 9172,
      "Ġthousand": 9173,
[...]
